{
  "version": "1.0",
  "truncation": null,
  "padding": null,
  "added_tokens": [
    {
      "id": 0,
      "content": "<PAD>",
      "single_word": false,
      "lstrip": false,
      "rstrip": false,
      "normalized": false,
      "special": true
    },
    {
      "id": 1,
      "content": "<SOS>",
      "single_word": false,
      "lstrip": false,
      "rstrip": false,
      "normalized": false,
      "special": true
    },
    {
      "id": 2,
      "content": "<EOS>",
      "single_word": false,
      "lstrip": false,
      "rstrip": false,
      "normalized": false,
      "special": true
    },
    {
      "id": 3,
      "content": "<UNK>",
      "single_word": false,
      "lstrip": false,
      "rstrip": false,
      "normalized": false,
      "special": true
    }
  ],
  "normalizer": null,
  "pre_tokenizer": {
    "type": "Whitespace"
  },
  "post_processor": {
    "type": "TemplateProcessing",
    "single": [
      {
        "SpecialToken": {
          "id": "<SOS>",
          "type_id": 0
        }
      },
      {
        "Sequence": {
          "id": "A",
          "type_id": 0
        }
      },
      {
        "SpecialToken": {
          "id": "<EOS>",
          "type_id": 0
        }
      }
    ],
    "pair": [
      {
        "Sequence": {
          "id": "A",
          "type_id": 0
        }
      },
      {
        "Sequence": {
          "id": "B",
          "type_id": 1
        }
      }
    ],
    "special_tokens": {
      "<EOS>": {
        "id": "<EOS>",
        "ids": [
          2
        ],
        "tokens": [
          "<EOS>"
        ]
      },
      "<SOS>": {
        "id": "<SOS>",
        "ids": [
          1
        ],
        "tokens": [
          "<SOS>"
        ]
      }
    }
  },
  "decoder": null,
  "model": {
    "type": "BPE",
    "dropout": null,
    "unk_token": "<UNK>",
    "continuing_subword_prefix": "##",
    "end_of_word_suffix": null,
    "fuse_unk": false,
    "byte_fallback": false,
    "ignore_merges": false,
    "vocab": {
      "<PAD>": 0,
      "<SOS>": 1,
      "<EOS>": 2,
      "<UNK>": 3,
      "!": 4,
      "\"": 5,
      "#": 6,
      "$": 7,
      "%": 8,
      "&": 9,
      "'": 10,
      "(": 11,
      ")": 12,
      "*": 13,
      "+": 14,
      ",": 15,
      "-": 16,
      ".": 17,
      "/": 18,
      "0": 19,
      "1": 20,
      "2": 21,
      "3": 22,
      "4": 23,
      "5": 24,
      "6": 25,
      "7": 26,
      "8": 27,
      "9": 28,
      ":": 29,
      ";": 30,
      "=": 31,
      ">": 32,
      "?": 33,
      "@": 34,
      "A": 35,
      "B": 36,
      "C": 37,
      "D": 38,
      "E": 39,
      "F": 40,
      "G": 41,
      "H": 42,
      "I": 43,
      "J": 44,
      "K": 45,
      "L": 46,
      "M": 47,
      "N": 48,
      "O": 49,
      "P": 50,
      "Q": 51,
      "R": 52,
      "S": 53,
      "T": 54,
      "U": 55,
      "V": 56,
      "W": 57,
      "X": 58,
      "Y": 59,
      "Z": 60,
      "[": 61,
      "\\": 62,
      "]": 63,
      "_": 64,
      "`": 65,
      "a": 66,
      "b": 67,
      "c": 68,
      "d": 69,
      "e": 70,
      "f": 71,
      "g": 72,
      "h": 73,
      "i": 74,
      "j": 75,
      "k": 76,
      "l": 77,
      "m": 78,
      "n": 79,
      "o": 80,
      "p": 81,
      "q": 82,
      "r": 83,
      "s": 84,
      "t": 85,
      "u": 86,
      "v": 87,
      "w": 88,
      "x": 89,
      "y": 90,
      "z": 91,
      "##t": 92,
      "##a": 93,
      "##e": 94,
      "##o": 95,
      "##r": 96,
      "##m": 97,
      "##y": 98,
      "##i": 99,
      "##c": 100,
      "##h": 101,
      "##s": 102,
      "##u": 103,
      "##k": 104,
      "##T": 105,
      "##A": 106,
      "##L": 107,
      "##K": 108,
      "##I": 109,
      "##N": 110,
      "##G": 111,
      "##n": 112,
      "##b": 113,
      "##d": 114,
      "##p": 115,
      "##l": 116,
      "##w": 117,
      "##D": 118,
      "##S": 119,
      "##g": 120,
      "##F": 121,
      "##E": 122,
      "##v": 123,
      "##f": 124,
      "##z": 125,
      "##x": 126,
      "##U": 127,
      "##R": 128,
      "##M": 129,
      "##O": 130,
      "##4": 131,
      "##0": 132,
      "##2": 133,
      "##3": 134,
      "##B": 135,
      "##V": 136,
      "##q": 137,
      "##H": 138,
      "##C": 139,
      "##9": 140,
      "##W": 141,
      "##8": 142,
      "##P": 143,
      "##Y": 144,
      "##5": 145,
      "##j": 146,
      "##X": 147,
      "##Z": 148,
      "##7": 149,
      "##1": 150,
      "##.": 151,
      "##'": 152,
      "##6": 153,
      "##)": 154,
      "##J": 155,
      "##,": 156,
      "##`": 157,
      "##Q": 158,
      "##;": 159,
      "##\"": 160,
      "##/": 161,
      "##-": 162,
      "##?": 163,
      "##!": 164,
      "##_": 165,
      "###": 166,
      "##@": 167,
      "##(": 168,
      "##+": 169,
      "##$": 170,
      "##=": 171,
      "##>": 172,
      "##]": 173,
      "##in": 174,
      "##ing": 175,
      "##it": 176,
      "##he": 177,
      "##an": 178,
      "##er": 179,
      "on": 180,
      "##le": 181,
      "of": 182,
      "##at": 183,
      "##re": 184,
      "in": 185,
      "the": 186,
      "##ar": 187,
      "an": 188,
      "##ro": 189,
      "wit": 190,
      "with": 191,
      "and": 192,
      "##al": 193,
      "##en": 194,
      "##om": 195,
      "st": 196,
      "to": 197,
      "##ed": 198,
      "##ding": 199,
      "##es": 200,
      "##as": 201,
      "##ck": 202,
      "##ow": 203,
      "##on": 204,
      "is": 205,
      "##et": 206,
      "##ir": 207,
      "##or": 208,
      "##ou": 209,
      "##is": 210,
      "man": 211,
      "##ting": 212,
      "##la": 213,
      "##op": 214,
      "sit": 215,
      "##ch": 216,
      "##all": 217,
      "##ra": 218,
      "##oo": 219,
      "##el": 220,
      "##id": 221,
      "##il": 222,
      "wh": 223,
      "sitting": 224,
      "##rou": 225,
      "ne": 226,
      "##ot": 227,
      "stan": 228,
      "##ol": 229,
      "##ers": 230,
      "##ite": 231,
      "##ig": 232,
      "##ab": 233,
      "##wo": 234,
      "##ard": 235,
      "##ic": 236,
      "bu": 237,
      "##ge": 238,
      "##ying": 239,
      "##ut": 240,
      "at": 241,
      "sk": 242,
      "are": 243,
      "##king": 244,
      "##eop": 245,
      "##eople": 246,
      "th": 247,
      "standing": 248,
      "##eb": 249,
      "be": 250,
      "white": 251,
      "##ide": 252,
      "##able": 253,
      "tra": 254,
      "##oard": 255,
      "wom": 256,
      "people": 257,
      "##ur": 258,
      "##ad": 259,
      "##xt": 260,
      "ro": 261,
      "next": 262,
      "woman": 263,
      "it": 264,
      "##nt": 265,
      "table": 266,
      "pla": 267,
      "pl": 268,
      "##nd": 269,
      "##ver": 270,
      "hol": 271,
      "do": 272,
      "cou": 273,
      "grou": 274,
      "stre": 275,
      "##ood": 276,
      "##ile": 277,
      "##ass": 278,
      "##lo": 279,
      "fi": 280,
      "street": 281,
      "##ff": 282,
      "fro": 283,
      "bo": 284,
      "holding": 285,
      "The": 286,
      "##her": 287,
      "par": 288,
      "la": 289,
      "top": 290,
      "##ate": 291,
      "##own": 292,
      "group": 293,
      "##ce": 294,
      "##ome": 295,
      "sh": 296,
      "##erson": 297,
      "bat": 298,
      "##am": 299,
      "person": 300,
      "##se": 301,
      "##ack": 302,
      "down": 303,
      "Two": 304,
      "two": 305,
      "ch": 306,
      "that": 307,
      "##ant": 308,
      "##ri": 309,
      "sm": 310,
      "wat": 311,
      "cat": 312,
      "##eld": 313,
      "sn": 314,
      "##che": 315,
      "ri": 316,
      "fl": 317,
      "field": 318,
      "pi": 319,
      "##arge": 320,
      "ten": 321,
      "##nis": 322,
      "##lack": 323,
      "##and": 324,
      "snow": 325,
      "dog": 326,
      "tennis": 327,
      "gir": 328,
      "##ach": 329,
      "large": 330,
      "black": 331,
      "##ve": 332,
      "##ru": 333,
      "##ng": 334,
      "##ke": 335,
      "up": 336,
      "some": 337,
      "train": 338,
      "front": 339,
      "car": 340,
      "park": 341,
      "##room": 342,
      "plate": 343,
      "##ion": 344,
      "bas": 345,
      "##ign": 346,
      "room": 347,
      "##igh": 348,
      "wal": 349,
      "riding": 350,
      "##row": 351,
      "clo": 352,
      "side": 353,
      "gr": 354,
      "bus": 355,
      "##ell": 356,
      "out": 357,
      "sign": 358,
      "##ree": 359,
      "sur": 360,
      "small": 361,
      "bl": 362,
      "red": 363,
      "kit": 364,
      "##ue": 365,
      "near": 366,
      "water": 367,
      "bath": 368,
      "##ul": 369,
      "his": 370,
      "##ain": 371,
      "##ure": 372,
      "re": 373,
      "##oung": 374,
      "##eball": 375,
      "grass": 376,
      "##board": 377,
      "ph": 378,
      "##ind": 379,
      "##ving": 380,
      "playing": 381,
      "##ple": 382,
      "##round": 383,
      "baseball": 384,
      "##ay": 385,
      "bed": 386,
      "##ink": 387,
      "air": 388,
      "surf": 389,
      "buil": 390,
      "##ight": 391,
      "young": 392,
      "skat": 393,
      "##reen": 394,
      "building": 395,
      "##ph": 396,
      "food": 397,
      "##air": 398,
      "bathroom": 399,
      "##one": 400,
      "skateb": 401,
      "##ent": 402,
      "walking": 403,
      "##st": 404,
      "loo": 405,
      "by": 406,
      "play": 407,
      "##ss": 408,
      "blue": 409,
      "##zz": 410,
      "##mb": 411,
      "##pt": 412,
      "##yc": 413,
      "com": 414,
      "##chen": 415,
      "kitchen": 416,
      "skateboard": 417,
      "wood": 418,
      "pizz": 419,
      "li": 420,
      "hor": 421,
      "su": 422,
      "##side": 423,
      "##ycle": 424,
      "co": 425,
      "##irt": 426,
      "##aring": 427,
      "green": 428,
      "An": 429,
      "has": 430,
      "parked": 431,
      "mot": 432,
      "her": 433,
      "while": 434,
      "back": 435,
      "boy": 436,
      "##ee": 437,
      "pizza": 438,
      "ele": 439,
      "##ds": 440,
      "for": 441,
      "po": 442,
      "road": 443,
      "##age": 444,
      "ot": 445,
      "##ilet": 446,
      "other": 447,
      "toilet": 448,
      "##ct": 449,
      "##ame": 450,
      "##ie": 451,
      "beach": 452,
      "motor": 453,
      "##tle": 454,
      "bear": 455,
      "##phant": 456,
      "eat": 457,
      "ball": 458,
      "ski": 459,
      "clock": 460,
      "des": 461,
      "##ane": 462,
      "ben": 463,
      "##gh": 464,
      "##ity": 465,
      "##ake": 466,
      "##ep": 467,
      "##aff": 468,
      "elephant": 469,
      "game": 470,
      "##rel": 471,
      "flying": 472,
      "##im": 473,
      "we": 474,
      "##dy": 475,
      "##ran": 476,
      "girl": 477,
      "##ture": 478,
      "looking": 479,
      "over": 480,
      "motorc": 481,
      "##mbrel": 482,
      "giraff": 483,
      "umbrel": 484,
      "comp": 485,
      "##cks": 486,
      "##led": 487,
      "laying": 488,
      "##ptop": 489,
      "##get": 490,
      "city": 491,
      "laptop": 492,
      "pic": 493,
      "##ild": 494,
      "sink": 495,
      "couple": 496,
      "wa": 497,
      "motorcycle": 498,
      "men": 499,
      "con": 500,
      "wearing": 501,
      "se": 502,
      "mou": 503,
      "player": 504,
      "##ill": 505,
      "##rown": 506,
      "tru": 507,
      "wooden": 508,
      "picture": 509,
      "she": 510,
      "wind": 511,
      "##lass": 512,
      "board": 513,
      "comput": 514,
      "bench": 515,
      "sl": 516,
      "dis": 517,
      "zeb": 518,
      "brown": 519,
      "##ld": 520,
      "Th": 521,
      "tow": 522,
      "bir": 523,
      "le": 524,
      "##ine": 525,
      "eating": 526,
      "##ellow": 527,
      "window": 528,
      "living": 529,
      "desk": 530,
      "gra": 531,
      "##ore": 532,
      "##ris": 533,
      "chair": 534,
      "sand": 535,
      "##rt": 536,
      "##ase": 537,
      "yellow": 538,
      "from": 539,
      "wall": 540,
      "cake": 541,
      "child": 542,
      "horse": 543,
      "around": 544,
      "al": 545,
      "##um": 546,
      "int": 547,
      "##oto": 548,
      "computer": 549,
      "boat": 550,
      "glass": 551,
      "##ap": 552,
      "photo": 553,
      "##veral": 554,
      "lit": 555,
      "##ong": 556,
      "##nder": 557,
      "##rough": 558,
      "airp": 559,
      "sits": 560,
      "stop": 561,
      "sc": 562,
      "hand": 563,
      "##un": 564,
      "their": 565,
      "sky": 566,
      "##ice": 567,
      "through": 568,
      "sw": 569,
      "area": 570,
      "truck": 571,
      "bun": 572,
      "fire": 573,
      "light": 574,
      "court": 575,
      "##cc": 576,
      "flo": 577,
      "##ter": 578,
      "surfboard": 579,
      "##pen": 580,
      "phone": 581,
      "##ks": 582,
      "old": 583,
      "he": 584,
      "cover": 585,
      "as": 586,
      "tree": 587,
      "##sh": 588,
      "##acket": 589,
      "bow": 590,
      "under": 591,
      "##risb": 592,
      "de": 593,
      "##ag": 594,
      "ban": 595,
      "umbrella": 596,
      "##ort": 597,
      "##illed": 598,
      "te": 599,
      "##ull": 600,
      "suit": 601,
      "##way": 602,
      "##ses": 603,
      "##ast": 604,
      "##ove": 605,
      "cell": 606,
      "ve": 607,
      "sp": 608,
      "##risbee": 609,
      "open": 610,
      "filled": 611,
      "close": 612,
      "cow": 613,
      "tre": 614,
      "bowl": 615,
      "##ery": 616,
      "##ross": 617,
      "count": 618,
      "##ped": 619,
      "covered": 620,
      "little": 621,
      "ra": 622,
      "outside": 623,
      "banan": 624,
      "##rick": 625,
      "giraffe": 626,
      "one": 627,
      "lot": 628,
      "each": 629,
      "##ground": 630,
      "trees": 631,
      "##est": 632,
      "col": 633,
      "cut": 634,
      "cl": 635,
      "bunch": 636,
      "flow": 637,
      "##ation": 638,
      "oran": 639,
      "couch": 640,
      "There": 641,
      "kite": 642,
      "bird": 643,
      "shirt": 644,
      "di": 645,
      "##irro": 646,
      "mirro": 647,
      "##gg": 648,
      "mirror": 649,
      "floor": 650,
      "cont": 651,
      "##sing": 652,
      "##pla": 653,
      "##ady": 654,
      "##em": 655,
      "ta": 656,
      "##up": 657,
      "##if": 658,
      "##ping": 659,
      "##hind": 660,
      "off": 661,
      "behind": 662,
      "background": 663,
      "fen": 664,
      "bi": 665,
      "##ves": 666,
      "##ich": 667,
      "sandw": 668,
      "Three": 669,
      "its": 670,
      "plane": 671,
      "very": 672,
      "##alk": 673,
      "show": 674,
      "pie": 675,
      "ap": 676,
      "hot": 677,
      "##iew": 678,
      "ab": 679,
      "mount": 680,
      "dou": 681,
      "run": 682,
      "sheep": 683,
      "##ras": 684,
      "tracks": 685,
      "swing": 686,
      "into": 687,
      "##yd": 688,
      "##eddy": 689,
      "##cean": 690,
      "##ub": 691,
      "ocean": 692,
      "##eat": 693,
      "hyd": 694,
      "skis": 695,
      "##ction": 696,
      "so": 697,
      "dri": 698,
      "hill": 699,
      "##walk": 700,
      "airpl": 701,
      "racket": 702,
      "teddy": 703,
      "##gether": 704,
      "together": 705,
      "ground": 706,
      "##qu": 707,
      "ref": 708,
      "##dle": 709,
      "counter": 710,
      "##ors": 711,
      "view": 712,
      "##ffic": 713,
      "##ching": 714,
      "mid": 715,
      "##rant": 716,
      "##ets": 717,
      "hydrant": 718,
      "##ly": 719,
      "pre": 720,
      "##ts": 721,
      "displa": 722,
      "Se": 723,
      "inside": 724,
      "dirt": 725,
      "sandwich": 726,
      "wave": 727,
      "##ang": 728,
      "stu": 729,
      "zebra": 730,
      "lu": 731,
      "sidewalk": 732,
      "traffic": 733,
      "fence": 734,
      "frisbee": 735,
      "snowboard": 736,
      "vase": 737,
      "Several": 738,
      "##les": 739,
      "stands": 740,
      "veget": 741,
      "flowers": 742,
      "go": 743,
      "##ry": 744,
      "bro": 745,
      "airplane": 746,
      "display": 747,
      "##orm": 748,
      "parking": 749,
      "##ches": 750,
      "mountain": 751,
      "orange": 752,
      "big": 753,
      "che": 754,
      "People": 755,
      "##ress": 756,
      "vegetable": 757,
      "many": 758,
      "women": 759,
      "head": 760,
      "bab": 761,
      "horses": 762,
      "met": 763,
      "##ak": 764,
      "##imal": 765,
      "tie": 766,
      "boo": 767,
      "tower": 768,
      "##ruit": 769,
      "tall": 770,
      "graz": 771,
      "##ner": 772,
      "animal": 773,
      "baby": 774,
      "##do": 775,
      "three": 776,
      "##other": 777,
      "jum": 778,
      "pass": 779,
      "Man": 780,
      "zebras": 781,
      "##ffer": 782,
      "##fferent": 783,
      "##ope": 784,
      "fruit": 785,
      "another": 786,
      "##iling": 787,
      "##ies": 788,
      "stand": 789,
      "##our": 790,
      "middle": 791,
      "##ble": 792,
      "##ator": 793,
      "plat": 794,
      "##etting": 795,
      "different": 796,
      "elephants": 797,
      "piece": 798,
      "doing": 799,
      "##ket": 800,
      "bananas": 801,
      "vegetables": 802,
      "hang": 803,
      "grassy": 804,
      "##ace": 805,
      "skiing": 806,
      "##ey": 807,
      "##iger": 808,
      "hit": 809,
      "bot": 810,
      "br": 811,
      "##ren": 812,
      "being": 813,
      "sa": 814,
      "cup": 815,
      "day": 816,
      "refr": 817,
      "##vel": 818,
      "bike": 819,
      "##ick": 820,
      "along": 821,
      "refriger": 822,
      "there": 823,
      "trick": 824,
      "snowy": 825,
      "cars": 826,
      "stuff": 827,
      "full": 828,
      "rest": 829,
      "##uring": 830,
      "slope": 831,
      "station": 832,
      "dress": 833,
      "im": 834,
      "fe": 835,
      "box": 836,
      "##ous": 837,
      "don": 838,
      "##ave": 839,
      "refrigerator": 840,
      "##rying": 841,
      "##ven": 842,
      "mo": 843,
      "##hes": 844,
      "grazing": 845,
      "##are": 846,
      "hat": 847,
      "driving": 848,
      "taking": 849,
      "##urn": 850,
      "##ari": 851,
      "##ade": 852,
      "giraffes": 853,
      "ma": 854,
      "##hing": 855,
      "##rol": 856,
      "gu": 857,
      "brocc": 858,
      "TH": 859,
      "dr": 860,
      "pole": 861,
      "wine": 862,
      "##nif": 863,
      "crow": 864,
      "##ated": 865,
      "##ched": 866,
      "cutting": 867,
      "ready": 868,
      "stuffed": 869,
      "tele": 870,
      "##ip": 871,
      "##ac": 872,
      "swinging": 873,
      "cor": 874,
      "en": 875,
      "vide": 876,
      "stove": 877,
      "cam": 878,
      "cle": 879,
      "crowd": 880,
      "video": 881,
      "Some": 882,
      "during": 883,
      "key": 884,
      "##ggage": 885,
      "signs": 886,
      "##las": 887,
      "##ment": 888,
      "several": 889,
      "cross": 890,
      "prep": 891,
      "##th": 892,
      "them": 893,
      "image": 894,
      "cows": 895,
      "skate": 896,
      "pro": 897,
      "ac": 898,
      "luggage": 899,
      "ad": 900,
      "pink": 901,
      "sun": 902,
      "##vis": 903,
      "hanging": 904,
      "tal": 905,
      "##ult": 906,
      "herd": 907,
      "##uts": 908,
      "across": 909,
      "bes": 910,
      "##oli": 911,
      "##IN": 912,
      "##ess": 913,
      "##vision": 914,
      "above": 915,
      "television": 916,
      "keyboard": 917,
      "body": 918,
      "wor": 919,
      "lo": 920,
      "umbrellas": 921,
      "travel": 922,
      "kites": 923,
      "ar": 924,
      "door": 925,
      "fr": 926,
      "double": 927,
      "##era": 928,
      "long": 929,
      "bag": 930,
      "##ii": 931,
      "pair": 932,
      "pap": 933,
      "control": 934,
      "##ust": 935,
      "beside": 936,
      "##rush": 937,
      "glasses": 938,
      "##cker": 939,
      "suitc": 940,
      "rem": 941,
      "##ning": 942,
      "##ccer": 943,
      "##iting": 944,
      "bic": 945,
      "vari": 946,
      "per": 947,
      "oven": 948,
      "cab": 949,
      "talking": 950,
      "camera": 951,
      "kid": 952,
      "##ries": 953,
      "This": 954,
      "broccoli": 955,
      "soccer": 956,
      "past": 957,
      "em": 958,
      "##ouse": 959,
      "##eng": 960,
      "##cor": 961,
      "##ten": 962,
      "holds": 963,
      "##ese": 964,
      "color": 965,
      "children": 966,
      "##ted": 967,
      "##ire": 968,
      "chairs": 969,
      "jumping": 970,
      "watching": 971,
      "bottle": 972,
      "corner": 973,
      "guy": 974,
      "topped": 975,
      "THE": 976,
      "dogs": 977,
      "buildings": 978,
      "pot": 979,
      "##ful": 980,
      "bicycle": 981,
      "##oth": 982,
      "going": 983,
      "brick": 984,
      "track": 985,
      "this": 986,
      "rac": 987,
      "night": 988,
      "##pty": 989,
      "##idge": 990,
      "##us": 991,
      "pit": 992,
      "##ffee": 993,
      "cur": 994,
      "airport": 995,
      "cabin": 996,
      "##out": 997,
      "coffee": 998,
      "decor": 999,
      "rid": 1000,
      "posing": 1001,
      "high": 1002,
      "##RE": 1003,
      "mon": 1004,
      "paper": 1005,
      "passeng": 1006,
      "##leep": 1007,
      "ser": 1008,
      "empty": 1009,
      "coo": 1010,
      "##ING": 1011,
      "birds": 1012,
      "boats": 1013,
      "walk": 1014,
      "din": 1015,
      "##pe": 1016,
      "who": 1017,
      "remot": 1018,
      "looks": 1019,
      "bre": 1020,
      "banana": 1021,
      "clou": 1022,
      "##form": 1023,
      "mar": 1024,
      "bedroom": 1025,
      "throw": 1026,
      "traveling": 1027,
      "using": 1028,
      "##ans": 1029,
      "plates": 1030,
      "ag": 1031,
      "pain": 1032,
      "motorcycles": 1033,
      "animals": 1034,
      "##oes": 1035,
      "river": 1036,
      "bears": 1037,
      "apple": 1038,
      "contain": 1039,
      "set": 1040,
      "smiling": 1041,
      "##ces": 1042,
      "lea": 1043,
      "getting": 1044,
      "decker": 1045,
      "##amp": 1046,
      "fore": 1047,
      "att": 1048,
      "house": 1049,
      "carrying": 1050,
      "##iss": 1051,
      "##aur": 1052,
      "pat": 1053,
      "me": 1054,
      "shower": 1055,
      "colorful": 1056,
      "##mp": 1057,
      "tray": 1058,
      "pull": 1059,
      "item": 1060,
      "sleep": 1061,
      "##umb": 1062,
      "pol": 1063,
      "##aurant": 1064,
      "pile": 1065,
      "##arding": 1066,
      "again": 1067,
      "runway": 1068,
      "restaurant": 1069,
      "him": 1070,
      "against": 1071,
      "bar": 1072,
      "home": 1073,
      "mic": 1074,
      "meat": 1075,
      "cheese": 1076,
      "##quet": 1077,
      "all": 1078,
      "lady": 1079,
      "row": 1080,
      "jet": 1081,
      "rail": 1082,
      "##ft": 1083,
      "book": 1084,
      "metal": 1085,
      "##kes": 1086,
      "##ark": 1087,
      "dough": 1088,
      "remote": 1089,
      "##ne": 1090,
      "rock": 1091,
      "skateboarder": 1092,
      "lots": 1093,
      "##cher": 1094,
      "shel": 1095,
      "suitcase": 1096,
      "lin": 1097,
      "drink": 1098,
      "##ian": 1099,
      "screen": 1100,
      "plant": 1101,
      "##ases": 1102,
      "##ive": 1103,
      "ramp": 1104,
      "##omet": 1105,
      "##ored": 1106,
      "##ler": 1107,
      "Frisbee": 1108,
      "monit": 1109,
      "players": 1110,
      "waiting": 1111,
      "##ced": 1112,
      "toy": 1113,
      "rain": 1114,
      "made": 1115,
      "can": 1116,
      "##der": 1117,
      "carro": 1118,
      "##omething": 1119,
      "items": 1120,
      "lights": 1121,
      "tile": 1122,
      "something": 1123,
      "running": 1124,
      "mu": 1125,
      "or": 1126,
      "enc": 1127,
      "##los": 1128,
      "store": 1129,
      "face": 1130,
      "##alf": 1131,
      "gi": 1132,
      "pur": 1133,
      "bran": 1134,
      "##oc": 1135,
      "mouth": 1136,
      "##ool": 1137,
      "preparing": 1138,
      "sleeping": 1139,
      "zoo": 1140,
      "##oll": 1141,
      "Wii": 1142,
      "enclos": 1143,
      "slice": 1144,
      "various": 1145,
      "brush": 1146,
      "surfing": 1147,
      "##issors": 1148,
      "seat": 1149,
      "hands": 1150,
      "about": 1151,
      "jacket": 1152,
      "##ection": 1153,
      "racquet": 1154,
      "outdo": 1155,
      "gray": 1156,
      "microw": 1157,
      "##iture": 1158,
      "pan": 1159,
      "##ial": 1160,
      "furn": 1161,
      "sil": 1162,
      "busy": 1163,
      "tooth": 1164,
      "res": 1165,
      "furniture": 1166,
      "hel": 1167,
      "##ars": 1168,
      "##red": 1169,
      "inters": 1170,
      "scissors": 1171,
      "bridge": 1172,
      "pulling": 1173,
      "line": 1174,
      "##ges": 1175,
      "dressed": 1176,
      "##gra": 1177,
      "microwave": 1178,
      "slic": 1179,
      "##raw": 1180,
      "##arm": 1181,
      "##ones": 1182,
      "like": 1183,
      "skier": 1184,
      "passenger": 1185,
      "knif": 1186,
      "intersection": 1187,
      "tub": 1188,
      "##ty": 1189,
      "knife": 1190,
      "donuts": 1191,
      "lying": 1192,
      "un": 1193,
      "toward": 1194,
      "##ading": 1195,
      "surfer": 1196,
      "##te": 1197,
      "##gs": 1198,
      "whe": 1199,
      "##pl": 1200,
      "##IT": 1201,
      "doughn": 1202,
      "clear": 1203,
      "mouse": 1204,
      "numb": 1205,
      "cabinets": 1206,
      "half": 1207,
      "silver": 1208,
      "sal": 1209,
      "##ather": 1210,
      "photogra": 1211,
      "Four": 1212,
      "dark": 1213,
      "ste": 1214,
      "ty": 1215,
      "no": 1216,
      "hair": 1217,
      "IS": 1218,
      "##we": 1219,
      "##hic": 1220,
      "shown": 1221,
      "cloudy": 1222,
      "colored": 1223,
      "##uce": 1224,
      "##oarding": 1225,
      "##ert": 1226,
      "gre": 1227,
      "rides": 1228,
      "male": 1229,
      "forest": 1230,
      "mat": 1231,
      "four": 1232,
      "##ale": 1233,
      "##cl": 1234,
      "##elf": 1235,
      "enclosure": 1236,
      "surround": 1237,
      "##phone": 1238,
      "branch": 1239,
      "##niform": 1240,
      "##ny": 1241,
      "ha": 1242,
      "look": 1243,
      "uniform": 1244,
      "batter": 1245,
      "St": 1246,
      "blan": 1247,
      "carrots": 1248,
      "##art": 1249,
      "##ating": 1250,
      "number": 1251,
      "throwing": 1252,
      "post": 1253,
      "##ond": 1254,
      "vehic": 1255,
      "oranges": 1256,
      "##anes": 1257,
      "##iz": 1258,
      "lake": 1259,
      "pill": 1260,
      "##ash": 1261,
      "way": 1262,
      "kids": 1263,
      "boys": 1264,
      "monitor": 1265,
      "##aning": 1266,
      "surrounded": 1267,
      "bet": 1268,
      "bread": 1269,
      "purple": 1270,
      "girls": 1271,
      "pe": 1272,
      "dock": 1273,
      "##ween": 1274,
      "books": 1275,
      "between": 1276,
      "##AN": 1277,
      "buses": 1278,
      "showing": 1279,
      "cand": 1280,
      "Many": 1281,
      "ON": 1282,
      "##oon": 1283,
      "lined": 1284,
      "photograph": 1285,
      "meal": 1286,
      "##akes": 1287,
      "##AT": 1288,
      "tri": 1289,
      "stat": 1290,
      "##oman": 1291,
      "decorated": 1292,
      "##day": 1293,
      "##eath": 1294,
      "##ocol": 1295,
      "scen": 1296,
      "##lic": 1297,
      "feed": 1298,
      "arm": 1299,
      "fork": 1300,
      "meter": 1301,
      "##ish": 1302,
      "stri": 1303,
      "##ved": 1304,
      "##ached": 1305,
      "stick": 1306,
      "##pes": 1307,
      "##ocolate": 1308,
      "few": 1309,
      "walks": 1310,
      "tv": 1311,
      "pillow": 1312,
      "##ron": 1313,
      "dish": 1314,
      "shelf": 1315,
      "cats": 1316,
      "##irth": 1317,
      "##per": 1318,
      "##inking": 1319,
      "##irthday": 1320,
      "stone": 1321,
      "bright": 1322,
      "chocolate": 1323,
      "flower": 1324,
      "jump": 1325,
      "##ud": 1326,
      "skiers": 1327,
      "dining": 1328,
      "pick": 1329,
      "basket": 1330,
      "shop": 1331,
      "crossing": 1332,
      "am": 1333,
      "drinking": 1334,
      "##atoes": 1335,
      "birthday": 1336,
      "##old": 1337,
      "salad": 1338,
      "outdoor": 1339,
      "older": 1340,
      "leaves": 1341,
      "attached": 1342,
      "##to": 1343,
      "Ch": 1344,
      "##ime": 1345,
      "coming": 1346,
      "have": 1347,
      "ex": 1348,
      "TV": 1349,
      "blanket": 1350,
      "grey": 1351,
      "displayed": 1352,
      "##ER": 1353,
      "incl": 1354,
      "##eth": 1355,
      "spe": 1356,
      "leaning": 1357,
      "waves": 1358,
      "perched": 1359,
      "adult": 1360,
      "helm": 1361,
      "ho": 1362,
      "##ulti": 1363,
      "walls": 1364,
      "making": 1365,
      "windows": 1366,
      "lush": 1367,
      "rocks": 1368,
      "scene": 1369,
      "lamp": 1370,
      "cart": 1371,
      "teeth": 1372,
      "##ily": 1373,
      "painted": 1374,
      "onto": 1375,
      "apples": 1376,
      "pictures": 1377,
      "##ings": 1378,
      "surfboards": 1379,
      "country": 1380,
      "pen": 1381,
      "clean": 1382,
      "perform": 1383,
      "##ance": 1384,
      "fla": 1385,
      "mountains": 1386,
      "Woman": 1387,
      "##astic": 1388,
      "##aut": 1389,
      "hu": 1390,
      "market": 1391,
      "controller": 1392,
      "toothb": 1393,
      "ob": 1394,
      "##dge": 1395,
      "fries": 1396,
      "office": 1397,
      "hitting": 1398,
      "watch": 1399,
      "working": 1400,
      "prepare": 1401,
      "turn": 1402,
      "seen": 1403,
      "##ublic": 1404,
      "##ken": 1405,
      "##els": 1406,
      "cook": 1407,
      "snowboarder": 1408,
      "comm": 1409,
      "elect": 1410,
      "##emale": 1411,
      "eng": 1412,
      "##ary": 1413,
      "plastic": 1414,
      "bikes": 1415,
      "OF": 1416,
      "tables": 1417,
      "resting": 1418,
      "trail": 1419,
      "police": 1420,
      "##LE": 1421,
      "towards": 1422,
      "##by": 1423,
      "ge": 1424,
      "statue": 1425,
      "##sed": 1426,
      "##int": 1427,
      "sunny": 1428,
      "public": 1429,
      "##tub": 1430,
      "clot": 1431,
      "fruits": 1432,
      "fre": 1433,
      "wet": 1434,
      "bathtub": 1435,
      "stopped": 1436,
      "setting": 1437,
      "##less": 1438,
      "ur": 1439,
      "carri": 1440,
      "wild": 1441,
      "##ug": 1442,
      "catch": 1443,
      "##ming": 1444,
      "laptops": 1445,
      "path": 1446,
      "lay": 1447,
      "##ents": 1448,
      "short": 1449,
      "hotel": 1450,
      "##hed": 1451,
      "platform": 1452,
      "##lection": 1453,
      "work": 1454,
      "donut": 1455,
      "##ats": 1456,
      "helmet": 1457,
      "edge": 1458,
      "brushing": 1459,
      "moving": 1460,
      "IN": 1461,
      "female": 1462,
      "##aching": 1463,
      "someone": 1464,
      "##jo": 1465,
      "##autif": 1466,
      "tom": 1467,
      "Sm": 1468,
      "stack": 1469,
      "##sp": 1470,
      "been": 1471,
      "shap": 1472,
      "yard": 1473,
      "##ric": 1474,
      "lap": 1475,
      "flat": 1476,
      "squ": 1477,
      "catcher": 1478,
      "##ety": 1479,
      "##oot": 1480,
      "cre": 1481,
      "enjo": 1482,
      "##ssort": 1483,
      "sub": 1484,
      "not": 1485,
      "##ling": 1486,
      "swim": 1487,
      "smile": 1488,
      "shot": 1489,
      "woods": 1490,
      "pizzas": 1491,
      "draw": 1492,
      "van": 1493,
      "vases": 1494,
      "##autiful": 1495,
      "topping": 1496,
      "pitch": 1497,
      "##neath": 1498,
      "Black": 1499,
      "case": 1500,
      "underneath": 1501,
      "ride": 1502,
      "wire": 1503,
      "part": 1504,
      "trying": 1505,
      "##iti": 1506,
      "beer": 1507,
      "gar": 1508,
      "slices": 1509,
      "skateboarding": 1510,
      "bel": 1511,
      "AN": 1512,
      "reading": 1513,
      "##rap": 1514,
      "surface": 1515,
      "appl": 1516,
      "beautiful": 1517,
      "dist": 1518,
      "time": 1519,
      "computers": 1520,
      "##hered": 1521,
      "pa": 1522,
      "##ffiti": 1523,
      "##tered": 1524,
      "but": 1525,
      "shore": 1526,
      "sandy": 1527,
      "tiled": 1528,
      "put": 1529,
      "##ect": 1530,
      "cooking": 1531,
      "fac": 1532,
      "mil": 1533,
      "multi": 1534,
      "##ally": 1535,
      "applian": 1536,
      "##AR": 1537,
      "pep": 1538,
      "pieces": 1539,
      "Someone": 1540,
      "##inal": 1541,
      "wii": 1542,
      "place": 1543,
      "Young": 1544,
      "sing": 1545,
      "placed": 1546,
      "shows": 1547,
      "##icken": 1548,
      "neck": 1549,
      "toothbrush": 1550,
      "ent": 1551,
      "types": 1552,
      "having": 1553,
      "passing": 1554,
      "eaten": 1555,
      "Small": 1556,
      "cellphone": 1557,
      "trains": 1558,
      "gis": 1559,
      "pitcher": 1560,
      "##ist": 1561,
      "conc": 1562,
      "boards": 1563,
      "graffiti": 1564,
      "fri": 1565,
      "nice": 1566,
      "ce": 1567,
      "dry": 1568,
      "THERE": 1569,
      "##bor": 1570,
      "phones": 1571,
      "fresh": 1572,
      "##tain": 1573,
      "fam": 1574,
      "##alm": 1575,
      "dire": 1576,
      "vehicle": 1577,
      "shoes": 1578,
      "base": 1579,
      "##place": 1580,
      "carriage": 1581,
      "dirty": 1582,
      "##ound": 1583,
      "ey": 1584,
      "chicken": 1585,
      "roll": 1586,
      "##dern": 1587,
      "town": 1588,
      "assort": 1589,
      "ble": 1590,
      "trun": 1591,
      "dinner": 1592,
      "tan": 1593,
      "##ix": 1594,
      "sty": 1595,
      "##ITH": 1596,
      "WITH": 1597,
      "engine": 1598,
      "##ley": 1599,
      "sauce": 1600,
      "##ition": 1601,
      "benches": 1602,
      "##top": 1603,
      "toppings": 1604,
      "##ement": 1605,
      "plants": 1606,
      "ca": 1607,
      "##ines": 1608,
      "##roup": 1609,
      "Large": 1610,
      "doughnut": 1611,
      "feeding": 1612,
      "appliances": 1613,
      "Group": 1614,
      "sail": 1615,
      "bowls": 1616,
      "land": 1617,
      "##inten": 1618,
      "##intendo": 1619,
      "##ins": 1620,
      "feat": 1621,
      "new": 1622,
      "du": 1623,
      "fenced": 1624,
      "##ides": 1625,
      "watches": 1626,
      "af": 1627,
      "fireplace": 1628,
      "others": 1629,
      "gat": 1630,
      "family": 1631,
      "just": 1632,
      "cent": 1633,
      "rack": 1634,
      "end": 1635,
      "curtain": 1636,
      "##ject": 1637,
      "trucks": 1638,
      "variety": 1639,
      "they": 1640,
      "##ages": 1641,
      "mounted": 1642,
      "##vers": 1643,
      "kind": 1644,
      "##armac": 1645,
      "dess": 1646,
      "##bo": 1647,
      "equ": 1648,
      "##py": 1649,
      "glo": 1650,
      "pret": 1651,
      "take": 1652,
      "egg": 1653,
      "##chool": 1654,
      "enjoying": 1655,
      "tarmac": 1656,
      "##wn": 1657,
      "##ized": 1658,
      "rice": 1659,
      "##ook": 1660,
      "pad": 1661,
      "curb": 1662,
      "single": 1663,
      "##cial": 1664,
      "stair": 1665,
      "##os": 1666,
      "distance": 1667,
      "doughnuts": 1668,
      "swimming": 1669,
      "##ures": 1670,
      "##stru": 1671,
      "spoon": 1672,
      "candles": 1673,
      "##pack": 1674,
      "##ely": 1675,
      "left": 1676,
      "##ger": 1677,
      "painting": 1678,
      "##road": 1679,
      "gathered": 1680,
      "sof": 1681,
      "modern": 1682,
      "gear": 1683,
      "##edest": 1684,
      "tricks": 1685,
      "performing": 1686,
      "school": 1687,
      "beds": 1688,
      "after": 1689,
      "sinks": 1690,
      "see": 1691,
      "pretty": 1692,
      "##rete": 1693,
      "##rist": 1694,
      "bottles": 1695,
      "was": 1696,
      "##cing": 1697,
      "striped": 1698,
      "concrete": 1699,
      "guys": 1700,
      "##eep": 1701,
      "planes": 1702,
      "bal": 1703,
      "backpack": 1704,
      "One": 1705,
      "pack": 1706,
      "poles": 1707,
      "hotdo": 1708,
      "fly": 1709,
      "containing": 1710,
      "##iding": 1711,
      "polar": 1712,
      "match": 1713,
      "arran": 1714,
      "##urch": 1715,
      "##ower": 1716,
      "equip": 1717,
      "pul": 1718,
      "##dd": 1719,
      "drinks": 1720,
      "bags": 1721,
      "##ooking": 1722,
      "##ronic": 1723,
      "container": 1724,
      "flies": 1725,
      "pas": 1726,
      "team": 1727,
      "center": 1728,
      "##its": 1729,
      "cute": 1730,
      "pulled": 1731,
      "##ll": 1732,
      "right": 1733,
      "well": 1734,
      "suitcases": 1735,
      "clut": 1736,
      "pillows": 1737,
      "pasture": 1738,
      "wr": 1739,
      "church": 1740,
      "##que": 1741,
      "foot": 1742,
      "onion": 1743,
      "poin": 1744,
      "AND": 1745,
      "tran": 1746,
      "offic": 1747,
      "kn": 1748,
      "below": 1749,
      "Gir": 1750,
      "sou": 1751,
      "##ball": 1752,
      "skateboards": 1753,
      "passengers": 1754,
      "stall": 1755,
      "##uding": 1756,
      "step": 1757,
      "railroad": 1758,
      "##ips": 1759,
      "ind": 1760,
      "shaped": 1761,
      "##ber": 1762,
      "including": 1763,
      "wed": 1764,
      "##ini": 1765,
      "##head": 1766,
      "steel": 1767,
      "##iches": 1768,
      "mess": 1769,
      "##me": 1770,
      "cattle": 1771,
      "catching": 1772,
      "##mas": 1773,
      "break": 1774,
      "electronic": 1775,
      "takes": 1776,
      "pedest": 1777,
      "hay": 1778,
      "##OM": 1779,
      "sofa": 1780,
      "feet": 1781,
      "ST": 1782,
      "ant": 1783,
      "##intage": 1784,
      "##ush": 1785,
      "##ession": 1786,
      "##ristmas": 1787,
      "##light": 1788,
      "among": 1789,
      "putting": 1790,
      "##ads": 1791,
      "trunk": 1792,
      "##ged": 1793,
      "boxes": 1794,
      "##lder": 1795,
      "cabinet": 1796,
      "wrap": 1797,
      "rug": 1798,
      "##ied": 1799,
      "crowded": 1800,
      "##ium": 1801,
      "fo": 1802,
      "cream": 1803,
      "kne": 1804,
      "qu": 1805,
      "##sc": 1806,
      "sandwiches": 1807,
      "Nintendo": 1808,
      "surfers": 1809,
      "soup": 1810,
      "alone": 1811,
      "fan": 1812,
      "floating": 1813,
      "##eling": 1814,
      "ju": 1815,
      "nearby": 1816,
      "fridge": 1817,
      "equipment": 1818,
      "##ames": 1819,
      "clothes": 1820,
      "blender": 1821,
      "app": 1822,
      "object": 1823,
      "fish": 1824,
      "towel": 1825,
      "##aking": 1826,
      "round": 1827,
      "##AL": 1828,
      "##ural": 1829,
      "##rench": 1830,
      "prop": 1831,
      "shorts": 1832,
      "bushes": 1833,
      "gold": 1834,
      "##rash": 1835,
      "loc": 1836,
      "##fe": 1837,
      "direction": 1838,
      "style": 1839,
      "giant": 1840,
      "reaching": 1841,
      "##ical": 1842,
      "tomatoes": 1843,
      "pool": 1844,
      "stain": 1845,
      "served": 1846,
      "##ons": 1847,
      "huge": 1848,
      "sticking": 1849,
      "art": 1850,
      "plays": 1851,
      "##fession": 1852,
      "##set": 1853,
      "##arden": 1854,
      "##iv": 1855,
      "##anding": 1856,
      "roo": 1857,
      "##land": 1858,
      "ceiling": 1859,
      "where": 1860,
      "smiles": 1861,
      "led": 1862,
      "reflection": 1863,
      "dishes": 1864,
      "prepares": 1865,
      "poses": 1866,
      "##lasses": 1867,
      "##fessional": 1868,
      "couches": 1869,
      "square": 1870,
      "##ycl": 1871,
      "vintage": 1872,
      "##ock": 1873,
      "##ercial": 1874,
      "space": 1875,
      "wedding": 1876,
      "garden": 1877,
      "clouds": 1878,
      "atop": 1879,
      "both": 1880,
      "potatoes": 1881,
      "sliced": 1882,
      "legs": 1883,
      "dev": 1884,
      "trash": 1885,
      "taken": 1886,
      "away": 1887,
      "bicycles": 1888,
      "serve": 1889,
      "straw": 1890,
      "docked": 1891,
      "lays": 1892,
      "##owing": 1893,
      "serving": 1894,
      "##lers": 1895,
      "##aked": 1896,
      "##ato": 1897,
      "subway": 1898,
      "##lin": 1899,
      "##elling": 1900,
      "cement": 1901,
      "##RO": 1902,
      "staring": 1903,
      "blo": 1904,
      "bent": 1905,
      "vehicles": 1906,
      "##fast": 1907,
      "kitten": 1908,
      "##unch": 1909,
      "##ious": 1910,
      "##iness": 1911,
      "foods": 1912,
      "pose": 1913,
      "form": 1914,
      "##EN": 1915,
      "rust": 1916,
      "rocky": 1917,
      "##read": 1918,
      "##IS": 1919,
      "##boarding": 1920,
      "##io": 1921,
      "design": 1922,
      "##ashion": 1923,
      "Stre": 1924,
      "multiple": 1925,
      "flag": 1926,
      "##vent": 1927,
      "which": 1928,
      "##cy": 1929,
      "fashion": 1930,
      "let": 1931,
      "airplanes": 1932,
      "smo": 1933,
      "stacked": 1934,
      "##struction": 1935,
      "ear": 1936,
      "commercial": 1937,
      "##iny": 1938,
      "Street": 1939,
      "Sk": 1940,
      "business": 1941,
      "##ows": 1942,
      "##ants": 1943,
      "Bo": 1944,
      "ham": 1945,
      "dessert": 1946,
      "##man": 1947,
      "##ier": 1948,
      "##itary": 1949,
      "cub": 1950,
      "##ward": 1951,
      "##OP": 1952,
      "##ique": 1953,
      "##ular": 1954,
      "sung": 1955,
      "appe": 1956,
      "har": 1957,
      "tour": 1958,
      "cap": 1959,
      "sunglasses": 1960,
      "mach": 1961,
      "win": 1962,
      "##rus": 1963,
      "mother": 1964,
      "highway": 1965,
      "##ils": 1966,
      "cloth": 1967,
      "drawn": 1968,
      "same": 1969,
      "clocks": 1970,
      "##aded": 1971,
      "del": 1972,
      "kick": 1973,
      "ump": 1974,
      "##ract": 1975,
      "##ige": 1976,
      "breakfast": 1977,
      "ARE": 1978,
      "##urry": 1979,
      "##ugh": 1980,
      "##ES": 1981,
      "farm": 1982,
      "##nic": 1983,
      "Person": 1984,
      "games": 1985,
      "say": 1986,
      "outf": 1987,
      "pedestri": 1988,
      "ledge": 1989,
      "##bb": 1990,
      "##ates": 1991,
      "hard": 1992,
      "ice": 1993,
      "professional": 1994,
      "hillside": 1995,
      "restroom": 1996,
      "swings": 1997,
      "overl": 1998,
      "outdoors": 1999,
      "As": 2000,
      "wheel": 2001,
      "umpire": 2002,
      "##AS": 2003,
      "##ump": 2004,
      "seated": 2005,
      "##artment": 2006,
      "flock": 2007,
      "urinal": 2008,
      "##let": 2009,
      "frien": 2010,
      "##ual": 2011,
      "##ET": 2012,
      "boarding": 2013,
      "cluttered": 2014,
      "##kets": 2015,
      "pepper": 2016,
      "##cking": 2017,
      "free": 2018,
      "##ban": 2019,
      "##ults": 2020,
      "cooked": 2021,
      "get": 2022,
      "stairs": 2023,
      "low": 2024,
      "##cakes": 2025,
      "monitors": 2026,
      "stainless": 2027,
      "cli": 2028,
      "fun": 2029,
      "ter": 2030,
      "bur": 2031,
      "chop": 2032,
      "desert": 2033,
      "race": 2034,
      "controllers": 2035,
      "hotdog": 2036,
      "Tra": 2037,
      "##liner": 2038,
      "lone": 2039,
      "desktop": 2040,
      "roof": 2041,
      "cla": 2042,
      "lad": 2043,
      "french": 2044,
      "##ned": 2045,
      "cage": 2046,
      "##self": 2047,
      "glove": 2048,
      "cra": 2049,
      "doll": 2050,
      "##pp": 2051,
      "doors": 2052,
      "wooded": 2053,
      "ret": 2054,
      "mod": 2055,
      "fra": 2056,
      "##rop": 2057,
      "picnic": 2058,
      "drives": 2059,
      "Wh": 2060,
      "gather": 2061,
      "disc": 2062,
      "##OT": 2063,
      "onions": 2064,
      "rackets": 2065,
      "arms": 2066,
      "##uit": 2067,
      "##uff": 2068,
      "##ded": 2069,
      "##vy": 2070,
      "##oni": 2071,
      "##vert": 2072,
      "coat": 2073,
      "himself": 2074,
      "jumps": 2075,
      "eyes": 2076,
      "##ident": 2077,
      "lawn": 2078,
      "##og": 2079,
      "inter": 2080,
      "prod": 2081,
      "##ists": 2082,
      "does": 2083,
      "sho": 2084,
      "signal": 2085,
      "nap": 2086,
      "chef": 2087,
      "military": 2088,
      "steps": 2089,
      "card": 2090,
      "##br": 2091,
      "facing": 2092,
      "cups": 2093,
      "says": 2094,
      "##irc": 2095,
      "shelves": 2096,
      "pond": 2097,
      "tou": 2098,
      "##arrow": 2099,
      "cost": 2100,
      "leather": 2101,
      "Clo": 2102,
      "##fore": 2103,
      "acc": 2104,
      "pointing": 2105,
      "fall": 2106,
      "kneeling": 2107,
      "eats": 2108,
      "##made": 2109,
      "##key": 2110,
      "messy": 2111,
      "##OW": 2112,
      "construction": 2113,
      "costum": 2114,
      "Asian": 2115,
      "##pers": 2116,
      "things": 2117,
      "broken": 2118,
      "skies": 2119,
      "##pet": 2120,
      "eggs": 2121,
      "##phones": 2122,
      "appro": 2123,
      "gate": 2124,
      "before": 2125,
      "sea": 2126,
      "event": 2127,
      "##od": 2128,
      "##OR": 2129,
      "stru": 2130,
      "cru": 2131,
      "##ED": 2132,
      "snowboarding": 2133,
      "grill": 2134,
      "floors": 2135,
      "circ": 2136,
      "##act": 2137,
      "includ": 2138,
      "ext": 2139,
      "deck": 2140,
      "make": 2141,
      "Christmas": 2142,
      "##mer": 2143,
      "log": 2144,
      "pots": 2145,
      "##vertis": 2146,
      "##icks": 2147,
      "##uter": 2148,
      "brocco": 2149,
      "fig": 2150,
      "lunch": 2151,
      "##ount": 2152,
      "hold": 2153,
      "##ations": 2154,
      "palm": 2155,
      "machine": 2156,
      "##cture": 2157,
      "##ON": 2158,
      "compet": 2159,
      "fashioned": 2160,
      "##az": 2161,
      "todd": 2162,
      "##rushes": 2163,
      "Zeb": 2164,
      "mag": 2165,
      "sweat": 2166,
      "neat": 2167,
      "type": 2168,
      "assortment": 2169,
      "##IR": 2170,
      "Men": 2171,
      "##ative": 2172,
      "vegg": 2173,
      "##xing": 2174,
      "##DING": 2175,
      "##cted": 2176,
      "attem": 2177,
      "arranged": 2178,
      "tur": 2179,
      "advertis": 2180,
      "must": 2181,
      "party": 2182,
      "overlooking": 2183,
      "narrow": 2184,
      "chain": 2185,
      "Air": 2186,
      "##tom": 2187,
      "##ser": 2188,
      "tied": 2189,
      "##aches": 2190,
      "##ony": 2191,
      "spr": 2192,
      "net": 2193,
      "##ia": 2194,
      "pasta": 2195,
      "self": 2196,
      "fight": 2197,
      "Giraff": 2198,
      "##ork": 2199,
      "##ape": 2200,
      "landing": 2201,
      "toilets": 2202,
      "bottom": 2203,
      "carrot": 2204,
      "mini": 2205,
      "carpet": 2206,
      "graze": 2207,
      "##AC": 2208,
      "lett": 2209,
      "##adow": 2210,
      "##ife": 2211,
      "mas": 2212,
      "cakes": 2213,
      "ties": 2214,
      "boarder": 2215,
      "trailer": 2216,
      "ship": 2217,
      "toddler": 2218,
      "mix": 2219,
      "comf": 2220,
      "suits": 2221,
      "White": 2222,
      "dep": 2223,
      "shade": 2224,
      "sunset": 2225,
      "pastries": 2226,
      "##uc": 2227,
      "##ering": 2228,
      "reads": 2229,
      "colors": 2230,
      "garage": 2231,
      "closed": 2232,
      "MAN": 2233,
      "indo": 2234,
      "trans": 2235,
      "leash": 2236,
      "steam": 2237,
      "port": 2238,
      "tu": 2239,
      "##ican": 2240,
      "skating": 2241,
      "rider": 2242,
      "electric": 2243,
      "sides": 2244,
      "wide": 2245,
      "##na": 2246,
      "##ns": 2247,
      "adults": 2248,
      "pants": 2249,
      "stad": 2250,
      "smart": 2251,
      "pr": 2252,
      "sale": 2253,
      "harbor": 2254,
      "ket": 2255,
      "beard": 2256,
      "stadium": 2257,
      "overhead": 2258,
      "Vari": 2259,
      "##ially": 2260,
      "bever": 2261,
      "opp": 2262,
      "##ory": 2263,
      "Bas": 2264,
      "tw": 2265,
      "walkway": 2266,
      "hou": 2267,
      "##laz": 2268,
      "device": 2269,
      "##IC": 2270,
      "shou": 2271,
      "plain": 2272,
      "Cat": 2273,
      "scoo": 2274,
      "She": 2275,
      "appears": 2276,
      "##AY": 2277,
      "PL": 2278,
      "##ators": 2279,
      "photos": 2280,
      "Five": 2281,
      "pier": 2282,
      "petting": 2283,
      "chips": 2284,
      "bite": 2285,
      "##house": 2286,
      "mush": 2287,
      "pract": 2288,
      "vest": 2289,
      "##ence": 2290,
      "foreground": 2291,
      "orn": 2292,
      "features": 2293,
      "rela": 2294,
      "THAT": 2295,
      "speed": 2296,
      "mushroom": 2297,
      "##ib": 2298,
      "cer": 2299,
      "cons": 2300,
      "bik": 2301,
      "assorted": 2302,
      "fancy": 2303,
      "gl": 2304,
      "still": 2305,
      "hole": 2306,
      "veggies": 2307,
      "towels": 2308,
      "leaf": 2309,
      "##ired": 2310,
      "barn": 2311,
      "groom": 2312,
      "##iers": 2313,
      "stret": 2314,
      "pos": 2315,
      "transit": 2316,
      "model": 2317,
      "##ise": 2318,
      "wrapped": 2319,
      "friends": 2320,
      "good": 2321,
      "refle": 2322,
      "held": 2323,
      "racing": 2324,
      "toys": 2325,
      "clothing": 2326,
      "officer": 2327,
      "Red": 2328,
      "toast": 2329,
      "sport": 2330,
      "paw": 2331,
      "loaded": 2332,
      "action": 2333,
      "##ives": 2334,
      "paddle": 2335,
      "pepperoni": 2336,
      "mis": 2337,
      "##ef": 2338,
      "teen": 2339,
      "partially": 2340,
      "urban": 2341,
      "railing": 2342,
      "dresser": 2343,
      "candle": 2344,
      "structure": 2345,
      "##co": 2346,
      "Baseball": 2347,
      "scooter": 2348,
      "power": 2349,
      "sill": 2350,
      "##urf": 2351,
      "lines": 2352,
      "position": 2353,
      "##sting": 2354,
      "##OU": 2355,
      "mud": 2356,
      "##aster": 2357,
      "##cket": 2358,
      "sod": 2359,
      "class": 2360,
      "beneath": 2361,
      "drive": 2362,
      "doorway": 2363,
      "##itten": 2364,
      "propell": 2365,
      "played": 2366,
      "lies": 2367,
      "seag": 2368,
      "grow": 2369,
      "island": 2370,
      "outfit": 2371,
      "fighter": 2372,
      "Various": 2373,
      "houses": 2374,
      "pee": 2375,
      "sheet": 2376,
      "papers": 2377,
      "hap": 2378,
      "giving": 2379,
      "tank": 2380,
      "kinds": 2381,
      "tomato": 2382,
      "sy": 2383,
      "gets": 2384,
      "lid": 2385,
      "vis": 2386,
      "saus": 2387,
      "frc": 2388,
      "Ad": 2389,
      "##ring": 2390,
      "pans": 2391,
      "##be": 2392,
      "Close": 2393,
      "makes": 2394,
      "flip": 2395,
      "pastry": 2396,
      "strawber": 2397,
      "bull": 2398,
      "contains": 2399,
      "tar": 2400,
      "apartment": 2401,
      "juice": 2402,
      "hood": 2403,
      "tag": 2404,
      "leading": 2405,
      "wets": 2406,
      "##ital": 2407,
      "sprink": 2408,
      "Pl": 2409,
      "##yard": 2410,
      "meters": 2411,
      "##ighting": 2412,
      "smoke": 2413,
      "winter": 2414,
      "##hel": 2415,
      "containers": 2416,
      "dra": 2417,
      "what": 2418,
      "writing": 2419,
      "used": 2420,
      "##bs": 2421,
      "##very": 2422,
      "lift": 2423,
      "##aper": 2424,
      "spot": 2425,
      "checker": 2426,
      "snowboards": 2427,
      "kicking": 2428,
      "calm": 2429,
      "cr": 2430,
      "sheets": 2431,
      "frosting": 2432,
      "##acon": 2433,
      "includes": 2434,
      "fur": 2435,
      "##ible": 2436,
      "peppers": 2437,
      "lettuce": 2438,
      "soda": 2439,
      "use": 2440,
      "rests": 2441,
      "shopping": 2442,
      "##cting": 2443,
      "##gon": 2444,
      "cubic": 2445,
      "sized": 2446,
      "##mon": 2447,
      "baked": 2448,
      "patio": 2449,
      "milk": 2450,
      "sort": 2451,
      "##ird": 2452,
      "lamb": 2453,
      "mound": 2454,
      "sliding": 2455,
      "nood": 2456,
      "##lage": 2457,
      "blond": 2458,
      "##tens": 2459,
      "##nding": 2460,
      "beans": 2461,
      "tent": 2462,
      "pitching": 2463,
      "##ider": 2464,
      "siz": 2465,
      "##ulpt": 2466,
      "antique": 2467,
      "##idential": 2468,
      "foll": 2469,
      "##bage": 2470,
      "mug": 2471,
      "opened": 2472,
      "decorative": 2473,
      "vanity": 2474,
      "leg": 2475,
      "bacon": 2476,
      "bride": 2477,
      "##KING": 2478,
      "streets": 2479,
      "med": 2480,
      "##ining": 2481,
      "stream": 2482,
      "crosswalk": 2483,
      "bou": 2484,
      "flight": 2485,
      "hats": 2486,
      "freez": 2487,
      "purse": 2488,
      "..": 2489,
      "##ray": 2490,
      "##ield": 2491,
      "tops": 2492,
      "rural": 2493,
      "bush": 2494,
      "sculpt": 2495,
      "tea": 2496,
      "ducks": 2497,
      "remotes": 2498,
      "costume": 2499,
      "upside": 2500,
      "waits": 2501,
      "return": 2502,
      "je": 2503,
      "sem": 2504,
      "prepared": 2505,
      "##ost": 2506,
      "sweater": 2507,
      "Bl": 2508,
      "utens": 2509,
      "##iled": 2510,
      "stunt": 2511,
      "heads": 2512,
      "commuter": 2513,
      "sim": 2514,
      "##OO": 2515,
      "blurry": 2516,
      "Child": 2517,
      "turned": 2518,
      "laid": 2519,
      "produce": 2520,
      "##ail": 2521,
      "##kin": 2522,
      "##itt": 2523,
      "five": 2524,
      "ripe": 2525,
      "nose": 2526,
      "pave": 2527,
      "##alle": 2528,
      "climb": 2529,
      "ow": 2530,
      "alongside": 2531,
      "term": 2532,
      "checkered": 2533,
      "glaz": 2534,
      "pavement": 2535,
      "rainy": 2536,
      "##erial": 2537,
      "cole": 2538,
      "branches": 2539,
      "block": 2540,
      "Ele": 2541,
      "##xed": 2542,
      "residential": 2543,
      "##ster": 2544,
      "##yclist": 2545,
      "rear": 2546,
      "touching": 2547,
      "##eds": 2548,
      "cond": 2549,
      "duck": 2550,
      "mustard": 2551,
      "terminal": 2552,
      "##ens": 2553,
      "pipe": 2554,
      "parade": 2555,
      "smaller": 2556,
      "sailing": 2557,
      "directions": 2558,
      "TO": 2559,
      "itself": 2560,
      "bare": 2561,
      "gas": 2562,
      "loading": 2563,
      "mushrooms": 2564,
      "tiny": 2565,
      "brightly": 2566,
      "wetsuit": 2567,
      "sep": 2568,
      "##chup": 2569,
      "written": 2570,
      "seagull": 2571,
      "flags": 2572,
      "pedestrians": 2573,
      "ketchup": 2574,
      "semi": 2575,
      "PE": 2576,
      "noodles": 2577,
      "guit": 2578,
      "##ature": 2579,
      "displaying": 2580,
      "##med": 2581,
      "sup": 2582,
      "urinals": 2583,
      "pup": 2584,
      "war": 2585,
      "built": 2586,
      "micro": 2587,
      "gife": 2588,
      "##bile": 2589,
      "persons": 2590,
      "##ivid": 2591,
      "hall": 2592,
      "AT": 2593,
      "##ange": 2594,
      "##ina": 2595,
      "##ctor": 2596,
      "you": 2597,
      "beige": 2598,
      "cour": 2599,
      "decorations": 2600,
      "riders": 2601,
      "freezer": 2602,
      "Cars": 2603,
      "deep": 2604,
      "pour": 2605,
      "##erts": 2606,
      "closeup": 2607,
      "##gging": 2608,
      "##scape": 2609,
      "##case": 2610,
      "personal": 2611,
      "uniforms": 2612,
      "collection": 2613,
      "growing": 2614,
      "In": 2615,
      "##wing": 2616,
      "##go": 2617,
      "goats": 2618,
      "enclosed": 2619,
      "shoe": 2620,
      "snake": 2621,
      "cas": 2622,
      "push": 2623,
      "##iff": 2624,
      "##orter": 2625,
      "tax": 2626,
      "platter": 2627,
      "ador": 2628,
      "##AB": 2629,
      "##opes": 2630,
      "utensils": 2631,
      "##ices": 2632,
      "sausage": 2633,
      "##cra": 2634,
      "##TING": 2635,
      "exp": 2636,
      "eye": 2637,
      "Boy": 2638,
      "##ness": 2639,
      "bookshel": 2640,
      "approaching": 2641,
      "##allow": 2642,
      "goes": 2643,
      "throws": 2644,
      "trays": 2645,
      "butter": 2646,
      "##zard": 2647,
      "waters": 2648,
      "liqu": 2649,
      "greens": 2650,
      "rais": 2651,
      "##lderly": 2652,
      "uses": 2653,
      "##nel": 2654,
      "##pting": 2655,
      "toaster": 2656,
      "leans": 2657,
      "course": 2658,
      "##ior": 2659,
      "bending": 2660,
      "##ggy": 2661,
      "balan": 2662,
      "pres": 2663,
      "##ALL": 2664,
      "guitar": 2665,
      "##cake": 2666,
      "##IL": 2667,
      "##seum": 2668,
      "roses": 2669,
      "deli": 2670,
      "propeller": 2671,
      "##rot": 2672,
      "cupcakes": 2673,
      "curtains": 2674,
      "ladies": 2675,
      "glazed": 2676,
      "hangs": 2677,
      "pickup": 2678,
      "##yclists": 2679,
      "suppl": 2680,
      "View": 2681,
      "rope": 2682,
      "tong": 2683,
      "feeder": 2684,
      "##OPLE": 2685,
      "BO": 2686,
      "##ral": 2687,
      "##ividual": 2688,
      "Multi": 2689,
      "life": 2690,
      "wait": 2691,
      "PEOPLE": 2692,
      "##IG": 2693,
      "pulls": 2694,
      "posted": 2695,
      "mitt": 2696,
      "ol": 2697,
      "##ully": 2698,
      "beverage": 2699,
      "##ath": 2700,
      "paint": 2701,
      "rolling": 2702,
      "indoor": 2703,
      "It": 2704,
      "##ware": 2705,
      "tool": 2706,
      "##aged": 2707,
      "##akers": 2708,
      "fried": 2709,
      "attempting": 2710,
      "supplies": 2711,
      "only": 2712,
      "Hor": 2713,
      "Old": 2714,
      "handle": 2715,
      "runs": 2716,
      "Mot": 2717,
      "jets": 2718,
      "por": 2719,
      "##hill": 2720,
      "lizard": 2721,
      "##omot": 2722,
      "##craft": 2723,
      "pine": 2724,
      "##ms": 2725,
      "stool": 2726,
      "passes": 2727,
      "##boat": 2728,
      "grand": 2729,
      "hydra": 2730,
      "curled": 2731,
      "##fl": 2732,
      "wagon": 2733,
      "snowboarders": 2734,
      "paved": 2735,
      "electronics": 2736,
      "Zebras": 2737,
      "fake": 2738,
      "##icing": 2739,
      "laugh": 2740,
      "dead": 2741,
      "transp": 2742,
      "shirtless": 2743,
      "neatly": 2744,
      "cal": 2745,
      "crou": 2746,
      "##so": 2747,
      "##rounding": 2748,
      "surrounding": 2749,
      "comple": 2750,
      "relaxing": 2751,
      "##ues": 2752,
      "char": 2753,
      "bunches": 2754,
      "##usk": 2755,
      "lamps": 2756,
      "missing": 2757,
      "##ps": 2758,
      "##als": 2759,
      "##ishing": 2760,
      "bucket": 2761,
      "stud": 2762,
      "ornate": 2763,
      "happy": 2764,
      "##ton": 2765,
      "museum": 2766,
      "comforter": 2767,
      "strawberries": 2768,
      "gent": 2769,
      "##was": 2770,
      "frame": 2771,
      "shoulder": 2772,
      "hers": 2773,
      "sticks": 2774,
      "baskets": 2775,
      "telephone": 2776,
      "patter": 2777,
      "wires": 2778,
      "garbage": 2779,
      "##omotive": 2780,
      "##gan": 2781,
      "adj": 2782,
      "Girl": 2783,
      "tuxed": 2784,
      "##oral": 2785,
      "potted": 2786,
      "Amer": 2787,
      "##ole": 2788,
      "##ike": 2789,
      "siting": 2790,
      "mirrors": 2791,
      "tiles": 2792,
      "##uffy": 2793,
      "TR": 2794,
      "snack": 2795,
      "balls": 2796,
      "aircraft": 2797,
      "##sted": 2798,
      "officers": 2799,
      "sculpture": 2800,
      "jeans": 2801,
      "Gu": 2802,
      "elderly": 2803,
      "##rance": 2804,
      "tail": 2805,
      "dont": 2806,
      "wheels": 2807,
      "headphones": 2808,
      "##ooked": 2809,
      "falling": 2810,
      "fast": 2811,
      "hum": 2812,
      "##ctators": 2813,
      "##bow": 2814,
      "##CH": 2815,
      "##ountain": 2816,
      "##washer": 2817,
      "Looking": 2818,
      "most": 2819,
      "performs": 2820,
      "Be": 2821,
      "bell": 2822,
      "if": 2823,
      "dishwasher": 2824,
      "individual": 2825,
      "pet": 2826,
      "sold": 2827,
      "without": 2828,
      "##cked": 2829,
      "haired": 2830,
      "packed": 2831,
      "clay": 2832,
      "how": 2833,
      "toss": 2834,
      "floral": 2835,
      "roadway": 2836,
      "##umer": 2837,
      "piled": 2838,
      "gentle": 2839,
      "##lebr": 2840,
      "muff": 2841,
      "##ERS": 2842,
      "capt": 2843,
      "selfie": 2844,
      "sports": 2845,
      "trol": 2846,
      "##avy": 2847,
      "spread": 2848,
      "##osite": 2849,
      "arrange": 2850,
      "formation": 2851,
      "pushing": 2852,
      "herself": 2853,
      "dim": 2854,
      "##ID": 2855,
      "airliner": 2856,
      "newsp": 2857,
      "locomotive": 2858,
      "separ": 2859,
      "steep": 2860,
      "shallow": 2861,
      "celebr": 2862,
      "practicing": 2863,
      "motion": 2864,
      "section": 2865,
      "cupboard": 2866,
      "talks": 2867,
      "Motor": 2868,
      "aw": 2869,
      "star": 2870,
      "##redi": 2871,
      "Com": 2872,
      "TW": 2873,
      "selling": 2874,
      "ven": 2875,
      "##bur": 2876,
      "stare": 2877,
      "here": 2878,
      "Multiple": 2879,
      "fir": 2880,
      "shirts": 2881,
      "arrangement": 2882,
      "SU": 2883,
      "soft": 2884,
      "Sheep": 2885,
      "tongue": 2886,
      "##EL": 2887,
      "sniff": 2888,
      "also": 2889,
      "holder": 2890,
      "flown": 2891,
      "##ertain": 2892,
      "landscape": 2893,
      "cycle": 2894,
      "##line": 2895,
      "##asing": 2896,
      "##umin": 2897,
      "covering": 2898,
      "toothbrushes": 2899,
      "Elephant": 2900,
      "##redients": 2901,
      "We": 2902,
      "foc": 2903,
      "cones": 2904,
      "##risbe": 2905,
      "##gress": 2906,
      "##aker": 2907,
      "American": 2908,
      "SK": 2909,
      "opposite": 2910,
      "fing": 2911,
      "rub": 2912,
      "Giraffes": 2913,
      "Children": 2914,
      "ing": 2915,
      "##ough": 2916,
      "##range": 2917,
      "progress": 2918,
      "stickers": 2919,
      "pouring": 2920,
      "TWO": 2921,
      "\".": 2922,
      "Kit": 2923,
      "##ots": 2924,
      "gravel": 2925,
      "exh": 2926,
      "##spital": 2927,
      "##allen": 2928,
      "neon": 2929,
      "##cts": 2930,
      "stuck": 2931,
      "travels": 2932,
      "marble": 2933,
      "patch": 2934,
      "basketball": 2935,
      "jetliner": 2936,
      "napkin": 2937,
      "Ben": 2938,
      "fallen": 2939,
      "mop": 2940,
      "skirt": 2941,
      "hors": 2942,
      "balloon": 2943,
      "microphone": 2944,
      "cop": 2945,
      "stra": 2946,
      "paras": 2947,
      "hits": 2948,
      "##ABLE": 2949,
      "##erry": 2950,
      "##ctive": 2951,
      "##ways": 2952,
      "##essor": 2953,
      "sprinkles": 2954,
      "bank": 2955,
      "corn": 2956,
      "##abit": 2957,
      "##eback": 2958,
      "desserts": 2959,
      "competition": 2960,
      "Br": 2961,
      "##ere": 2962,
      "skateboarders": 2963,
      "Adult": 2964,
      "puppy": 2965,
      "Guy": 2966,
      "Big": 2967,
      "icing": 2968,
      "mus": 2969,
      "##zza": 2970,
      "objects": 2971,
      "wing": 2972,
      "##bed": 2973,
      "##UT": 2974,
      "frosted": 2975,
      "asleep": 2976,
      "Lit": 2977,
      "##eled": 2978,
      "##ater": 2979,
      "shadow": 2980,
      "fluffy": 2981,
      "blankets": 2982,
      "ingredients": 2983,
      "horseback": 2984,
      "##GE": 2985,
      "buff": 2986,
      "blowing": 2987,
      "coll": 2988,
      "images": 2989,
      "hospital": 2990,
      "faces": 2991,
      "hotdogs": 2992,
      "range": 2993,
      "climbing": 2994,
      "fa": 2995,
      "##icious": 2996,
      "pedestrian": 2997,
      "##ACK": 2998,
      "pictured": 2999,
      "counters": 3000,
      "##ARD": 3001,
      "visible": 3002,
      "Dog": 3003,
      "habit": 3004,
      "homemade": 3005,
      "rainbow": 3006,
      "Surf": 3007,
      "##ids": 3008,
      "##anta": 3009,
      "motorb": 3010,
      "Pic": 3011,
      "gro": 3012,
      "##time": 3013,
      "mult": 3014,
      "string": 3015,
      "##aming": 3016,
      "stoplight": 3017,
      "goat": 3018,
      "strip": 3019,
      "rolls": 3020,
      "Ap": 3021,
      "SIT": 3022,
      "fountain": 3023,
      "tun": 3024,
      "downhill": 3025,
      "##ondon": 3026,
      "Cows": 3027,
      "reaches": 3028,
      "cardboard": 3029,
      "##amic": 3030,
      "wears": 3031,
      "entrance": 3032,
      "##boy": 3033,
      "##OL": 3034,
      "ang": 3035,
      "dip": 3036,
      "featuring": 3037,
      "taxi": 3038,
      "habitat": 3039,
      "fin": 3040,
      "jar": 3041,
      "tast": 3042,
      "##oned": 3043,
      "leap": 3044,
      "olives": 3045,
      "BE": 3046,
      "cro": 3047,
      "plaid": 3048,
      "STRE": 3049,
      "newspaper": 3050,
      "Little": 3051,
      "##fully": 3052,
      "organ": 3053,
      "##ATE": 3054,
      "gathering": 3055,
      "Sn": 3056,
      "aut": 3057,
      "tab": 3058,
      "moves": 3059,
      "whole": 3060,
      "furnis": 3061,
      "STREET": 3062,
      "chil": 3063,
      "conf": 3064,
      "carries": 3065,
      "bunk": 3066,
      "rows": 3067,
      "tara": 3068,
      "pige": 3069,
      "opening": 3070,
      "photograp": 3071,
      "cookies": 3072,
      "foil": 3073,
      "mixed": 3074,
      "PLAY": 3075,
      "blonde": 3076,
      "liquid": 3077,
      "##ano": 3078,
      "batting": 3079,
      "covers": 3080,
      "To": 3081,
      "name": 3082,
      "obser": 3083,
      "prin": 3084,
      "tools": 3085,
      "##dling": 3086,
      "shiny": 3087,
      "transport": 3088,
      "lab": 3089,
      "##thy": 3090,
      "hambur": 3091,
      "Motorc": 3092,
      "Col": 3093,
      "christmas": 3094,
      "Stop": 3095,
      "figur": 3096,
      "exhib": 3097,
      "SITTING": 3098,
      "##eboard": 3099,
      "backs": 3100,
      "cleaning": 3101,
      "Traffic": 3102,
      "condim": 3103,
      "first": 3104,
      "##ental": 3105,
      "conne": 3106,
      "rusted": 3107,
      "exten": 3108,
      "Picture": 3109,
      "Snow": 3110,
      "##ked": 3111,
      "##oming": 3112,
      "slopes": 3113,
      "cowboy": 3114,
      "hills": 3115,
      "entertain": 3116,
      "Pi": 3117,
      "loung": 3118,
      "##wood": 3119,
      "##van": 3120,
      "##ished": 3121,
      "seats": 3122,
      "magn": 3123,
      "far": 3124,
      "##ging": 3125,
      "##ute": 3126,
      "alley": 3127,
      "enjoy": 3128,
      "muddy": 3129,
      "Blue": 3130,
      "lighting": 3131,
      "##erries": 3132,
      "##eeple": 3133,
      "potato": 3134,
      "dump": 3135,
      "stage": 3136,
      "controls": 3137,
      "Apple": 3138,
      "tire": 3139,
      "bul": 3140,
      "cargo": 3141,
      "booth": 3142,
      "balc": 3143,
      "numer": 3144,
      "parrot": 3145,
      "##ured": 3146,
      "sug": 3147,
      "checking": 3148,
      "great": 3149,
      "shape": 3150,
      "##ockey": 3151,
      "##brary": 3152,
      "ahead": 3153,
      "shru": 3154,
      "flooring": 3155,
      "saf": 3156,
      "spectators": 3157,
      "washing": 3158,
      "trolley": 3159,
      "da": 3160,
      "scr": 3161,
      "THIS": 3162,
      "arch": 3163,
      "magaz": 3164,
      "miniature": 3165,
      "steeple": 3166,
      "beef": 3167,
      "These": 3168,
      "##stem": 3169,
      "indic": 3170,
      "advertisement": 3171,
      "laughing": 3172,
      "focus": 3173,
      "Ten": 3174,
      "even": 3175,
      "blow": 3176,
      "driver": 3177,
      "golden": 3178,
      "delicious": 3179,
      "system": 3180,
      "London": 3181,
      "WH": 3182,
      "aud": 3183,
      "fishing": 3184,
      "sad": 3185,
      "##ience": 3186,
      "trav": 3187,
      "##rial": 3188,
      "turning": 3189,
      "gloves": 3190,
      "On": 3191,
      "##UN": 3192,
      "##ited": 3193,
      "rusty": 3194,
      "Green": 3195,
      "frisbe": 3196,
      "thin": 3197,
      "spider": 3198,
      "hallway": 3199,
      "##father": 3200,
      "someones": 3201,
      "proc": 3202,
      "pickle": 3203,
      "workers": 3204,
      "bookshelf": 3205,
      "bri": 3206,
      "rad": 3207,
      "catches": 3208,
      "located": 3209,
      "condiments": 3210,
      "sle": 3211,
      "displays": 3212,
      "helping": 3213,
      "##olded": 3214,
      "den": 3215,
      "unmade": 3216,
      "crust": 3217,
      "exhibit": 3218,
      "He": 3219,
      "wings": 3220,
      "##icol": 3221,
      "grapes": 3222,
      "countertop": 3223,
      "toothp": 3224,
      "size": 3225,
      "tabby": 3226,
      "travelling": 3227,
      "pancakes": 3228,
      "grandfather": 3229,
      "cust": 3230,
      "lane": 3231,
      "##iet": 3232,
      "##ugg": 3233,
      "##de": 3234,
      "##ront": 3235,
      "carts": 3236,
      "forward": 3237,
      "apron": 3238,
      "brushes": 3239,
      "lar": 3240,
      "library": 3241,
      "mobile": 3242,
      "##ustrial": 3243,
      "Giraffe": 3244,
      "depic": 3245,
      "Brown": 3246,
      "pin": 3247,
      "##ither": 3248,
      "##ague": 3249,
      "spin": 3250,
      "balcony": 3251,
      "bit": 3252,
      "##arf": 3253,
      "##asting": 3254,
      "interior": 3255,
      "attire": 3256,
      "Pizza": 3257,
      "Ro": 3258,
      "Sh": 3259,
      "baking": 3260,
      "either": 3261,
      "story": 3262,
      "TABLE": 3263,
      "##tress": 3264,
      "##uzz": 3265,
      "grilled": 3266,
      "convers": 3267,
      "winds": 3268,
      "alm": 3269,
      "words": 3270,
      "series": 3271,
      "layer": 3272,
      "tunnel": 3273,
      "stir": 3274,
      "thrown": 3275,
      "sec": 3276,
      "spray": 3277,
      "chees": 3278,
      "jockey": 3279,
      "rep": 3280,
      "meadow": 3281,
      "cliff": 3282,
      "accessor": 3283,
      "Tennis": 3284,
      "##URE": 3285,
      "##eting": 3286,
      "neigh": 3287,
      "sharing": 3288,
      "chasing": 3289,
      "cupcake": 3290,
      "typing": 3291,
      "industrial": 3292,
      "Skat": 3293,
      "Food": 3294,
      "vol": 3295,
      "##inese": 3296,
      "posed": 3297,
      "dryer": 3298,
      "cafe": 3299,
      "accessories": 3300,
      "##olf": 3301,
      "##ables": 3302,
      "canop": 3303,
      "hugging": 3304,
      "chili": 3305,
      "##icolored": 3306,
      "nic": 3307,
      "##ters": 3308,
      "rose": 3309,
      "##akery": 3310,
      "following": 3311,
      "stares": 3312,
      "band": 3313,
      "biting": 3314,
      "calf": 3315,
      "ill": 3316,
      "##ew": 3317,
      "##ried": 3318,
      "watering": 3319,
      "lif": 3320,
      "picking": 3321,
      "seems": 3322,
      "ceramic": 3323,
      "Ban": 3324,
      "six": 3325,
      "##lish": 3326,
      "##look": 3327,
      "##attered": 3328,
      "shining": 3329,
      "##ently": 3330,
      "sus": 3331,
      "lighthouse": 3332,
      "chest": 3333,
      "sleeps": 3334,
      "cig": 3335,
      "iron": 3336,
      "##hood": 3337,
      "##here": 3338,
      "chefs": 3339,
      "bouquet": 3340,
      "link": 3341,
      "odd": 3342,
      "##und": 3343,
      "ribb": 3344,
      "piano": 3345,
      "countryside": 3346,
      "STAN": 3347,
      "designed": 3348,
      "neighbor": 3349,
      "own": 3350,
      "##owers": 3351,
      "##ITE": 3352,
      "mattress": 3353,
      "turkey": 3354,
      "groc": 3355,
      "custom": 3356,
      "more": 3357,
      "##FF": 3358,
      "##zen": 3359,
      "splas": 3360,
      "arrow": 3361,
      "steak": 3362,
      "teenag": 3363,
      "almost": 3364,
      "Skateboard": 3365,
      "Fl": 3366,
      "##men": 3367,
      "stor": 3368,
      "flood": 3369,
      "heart": 3370,
      "bagg": 3371,
      "poster": 3372,
      "##ushion": 3373,
      "Zebra": 3374,
      "sniffing": 3375,
      "gaz": 3376,
      "##lit": 3377,
      "dispen": 3378,
      "burger": 3379,
      "mask": 3380,
      "hamburger": 3381,
      "BL": 3382,
      "IT": 3383,
      "aerial": 3384,
      "bakery": 3385,
      "strol": 3386,
      "##stand": 3387,
      "horns": 3388,
      "heading": 3389,
      "marina": 3390,
      "Train": 3391,
      "paws": 3392,
      "tasty": 3393,
      "cushion": 3394,
      "fil": 3395,
      "jo": 3396,
      "##av": 3397,
      "##ls": 3398,
      "sugar": 3399,
      ".\"": 3400,
      "BU": 3401,
      "CH": 3402,
      "WOM": 3403,
      "jumb": 3404,
      "##esting": 3405,
      "##ord": 3406,
      "mans": 3407,
      "##ility": 3408,
      "##ightly": 3409,
      "comb": 3410,
      "obst": 3411,
      "Motorcycle": 3412,
      "suspen": 3413,
      "##work": 3414,
      "##oun": 3415,
      "tractor": 3416,
      "##hers": 3417,
      "##andoned": 3418,
      "##aret": 3419,
      "hose": 3420,
      "amongst": 3421,
      "Horses": 3422,
      "mostly": 3423,
      "entertainment": 3424,
      "Bath": 3425,
      "av": 3426,
      "dig": 3427,
      "pow": 3428,
      "##rib": 3429,
      "coach": 3430,
      "##aste": 3431,
      "##uddle": 3432,
      "teams": 3433,
      "bill": 3434,
      "nat": 3435,
      "matching": 3436,
      "multicolored": 3437,
      "nicely": 3438,
      "neighborhood": 3439,
      "warm": 3440,
      "##ette": 3441,
      "##allic": 3442,
      "chopped": 3443,
      "porch": 3444,
      "gentleman": 3445,
      "collar": 3446,
      "magnets": 3447,
      "obstac": 3448,
      "Yellow": 3449,
      "##eal": 3450,
      "##AD": 3451,
      "##AM": 3452,
      "read": 3453,
      "cuts": 3454,
      "PLAYING": 3455,
      "larger": 3456,
      "Banan": 3457,
      "cigaret": 3458,
      "dusk": 3459,
      "##isting": 3460,
      "##inds": 3461,
      "lemon": 3462,
      "leaving": 3463,
      "candy": 3464,
      "straight": 3465,
      "##car": 3466,
      "chewing": 3467,
      "funny": 3468,
      "DO": 3469,
      "PIC": 3470,
      "##chair": 3471,
      "order": 3472,
      "statues": 3473,
      "trunks": 3474,
      "owner": 3475,
      "strap": 3476,
      "abandoned": 3477,
      "tablet": 3478,
      "gran": 3479,
      "works": 3480,
      "buffet": 3481,
      "baggage": 3482,
      "Bathroom": 3483,
      "golf": 3484,
      "tin": 3485,
      "##TURE": 3486,
      "##ownt": 3487,
      "fixt": 3488,
      "metallic": 3489,
      "advertising": 3490,
      "Closeup": 3491,
      "Elephants": 3492,
      "pri": 3493,
      "##oe": 3494,
      "onlook": 3495,
      "##ASS": 3496,
      "circular": 3497,
      "jumbo": 3498,
      "Car": 3499,
      "LOT": 3500,
      "every": 3501,
      "##mons": 3502,
      "##AIN": 3503,
      "beg": 3504,
      "##quets": 3505,
      "railway": 3506,
      "attempt": 3507,
      "driveway": 3508,
      "##IDE": 3509,
      "canopy": 3510,
      "##owntown": 3511,
      "dust": 3512,
      "rol": 3513,
      "sets": 3514,
      "tries": 3515,
      "shaking": 3516,
      "boots": 3517,
      "formal": 3518,
      "twin": 3519,
      "folded": 3520,
      "jers": 3521,
      "resort": 3522,
      "organized": 3523,
      "natural": 3524,
      "Ve": 3525,
      "move": 3526,
      "##af": 3527,
      "##aks": 3528,
      "thick": 3529,
      "##ngle": 3530,
      "##ption": 3531,
      "weather": 3532,
      "level": 3533,
      "lambs": 3534,
      "motorbike": 3535,
      "powder": 3536,
      "pony": 3537,
      "ring": 3538,
      "instru": 3539,
      "backyard": 3540,
      "lemons": 3541,
      "freshly": 3542,
      "##ival": 3543,
      "devices": 3544,
      "connected": 3545,
      "jersey": 3546,
      "cases": 3547,
      "nintendo": 3548,
      "##NT": 3549,
      "scarf": 3550,
      "heavy": 3551,
      "cold": 3552,
      "bars": 3553,
      "barrel": 3554,
      "pickles": 3555,
      "Skiers": 3556,
      "framed": 3557,
      "classroom": 3558,
      "castle": 3559,
      "audience": 3560,
      "fab": 3561,
      "hiding": 3562,
      "##anda": 3563,
      "foreign": 3564,
      "rails": 3565,
      "hung": 3566,
      "granite": 3567,
      "contents": 3568,
      "##usting": 3569,
      "jungle": 3570,
      "dimly": 3571,
      "cupboards": 3572,
      "ram": 3573,
      "us": 3574,
      "##ggles": 3575,
      "monkey": 3576,
      "worker": 3577,
      "produ": 3578,
      "reflected": 3579,
      "WOMAN": 3580,
      "PH": 3581,
      "dot": 3582,
      "downtown": 3583,
      "##ung": 3584,
      "##omen": 3585,
      "para": 3586,
      "word": 3587,
      "helmets": 3588,
      "vend": 3589,
      "pop": 3590,
      "##ooks": 3591,
      "propped": 3592,
      "Six": 3593,
      "emb": 3594,
      "mass": 3595,
      "##bble": 3596,
      "##irds": 3597,
      "shad": 3598,
      "rec": 3599,
      "league": 3600,
      "mel": 3601,
      "##zy": 3602,
      "##alley": 3603,
      "busses": 3604,
      "racquets": 3605,
      "serv": 3606,
      "silverware": 3607,
      "sailboat": 3608,
      "football": 3609,
      "tossing": 3610,
      "finger": 3611,
      "volley": 3612,
      "PICTURE": 3613,
      "Women": 3614,
      "##ments": 3615,
      "ladder": 3616,
      "Color": 3617,
      "Bro": 3618,
      "main": 3619,
      "##coming": 3620,
      "shut": 3621,
      "upon": 3622,
      "desks": 3623,
      "amount": 3624,
      "foggy": 3625,
      "quiet": 3626,
      "raised": 3627,
      "moped": 3628,
      "lounging": 3629,
      "magazine": 3630,
      "fabric": 3631,
      "father": 3632,
      "##front": 3633,
      "##ift": 3634,
      "smoking": 3635,
      "hardwood": 3636,
      "STANDING": 3637,
      "ears": 3638,
      "##vated": 3639,
      "##CK": 3640,
      "##ama": 3641,
      "desc": 3642,
      "sunlight": 3643,
      "unc": 3644,
      "bearded": 3645,
      "adorable": 3646,
      "evening": 3647,
      "pump": 3648,
      "besides": 3649,
      "unus": 3650,
      "wilder": 3651,
      "belt": 3652,
      "illumin": 3653,
      "cigarette": 3654,
      "SH": 3655,
      "ax": 3656,
      "son": 3657,
      "##stri": 3658,
      "##vely": 3659,
      "males": 3660,
      "logs": 3661,
      "circle": 3662,
      "present": 3663,
      "BAT": 3664,
      "Pol": 3665,
      "el": 3666,
      "lang": 3667,
      "##ote": 3668,
      "thumb": 3669,
      "bats": 3670,
      "licking": 3671,
      "point": 3672,
      "collage": 3673,
      "##boats": 3674,
      "bikini": 3675,
      "grocery": 3676,
      "obstacle": 3677,
      "Hot": 3678,
      "Ind": 3679,
      "fans": 3680,
      "furry": 3681,
      "##sel": 3682,
      "##ilt": 3683,
      "fixing": 3684,
      "skiis": 3685,
      "motorcyclist": 3686,
      "cookie": 3687,
      "##istic": 3688,
      "storage": 3689,
      "langu": 3690,
      "oper": 3691,
      "##mes": 3692,
      "##raying": 3693,
      "scattered": 3694,
      "grazes": 3695,
      "sticker": 3696,
      "speakers": 3697,
      "squat": 3698,
      "peeking": 3699,
      "seagulls": 3700,
      "##vanna": 3701,
      "WHITE": 3702,
      "wilderness": 3703,
      "NE": 3704,
      "saying": 3705,
      "daytime": 3706,
      "bikers": 3707,
      "Assort": 3708,
      "Un": 3709,
      "ple": 3710,
      "rel": 3711,
      "sla": 3712,
      "##use": 3713,
      "stock": 3714,
      "bund": 3715,
      "##amel": 3716,
      "lear": 3717,
      "##ument": 3718,
      "towering": 3719,
      "guard": 3720,
      "crosses": 3721,
      "Chinese": 3722,
      "cereal": 3723,
      "separate": 3724,
      "onlookers": 3725,
      "PAR": 3726,
      "WI": 3727,
      "##ka": 3728,
      "##unk": 3729,
      "##cloth": 3730,
      "clutter": 3731,
      "spinach": 3732,
      "ribbon": 3733,
      "dispenser": 3734,
      "Cou": 3735,
      "ass": 3736,
      "bay": 3737,
      "id": 3738,
      "##att": 3739,
      "goggles": 3740,
      "##arent": 3741,
      "prote": 3742,
      "canoe": 3743,
      "balancing": 3744,
      "delivery": 3745,
      "safety": 3746,
      "Birds": 3747,
      "bin": 3748,
      "##illa": 3749,
      "tablecloth": 3750,
      "##illing": 3751,
      "buns": 3752,
      "stretching": 3753,
      "##ounge": 3754,
      "##selves": 3755,
      "Do": 3756,
      "RO": 3757,
      "crib": 3758,
      "arena": 3759,
      "conve": 3760,
      "balloons": 3761,
      "mom": 3762,
      "##my": 3763,
      "##gy": 3764,
      "themselves": 3765,
      "sizes": 3766,
      "flooded": 3767,
      "nuts": 3768,
      "asian": 3769,
      "drawers": 3770,
      "comfort": 3771,
      "crane": 3772,
      "fauc": 3773,
      "City": 3774,
      "cher": 3775,
      "gri": 3776,
      "talk": 3777,
      "##tor": 3778,
      "##aw": 3779,
      "##SE": 3780,
      "courtyard": 3781,
      "heal": 3782,
      "friend": 3783,
      "leafy": 3784,
      "peeled": 3785,
      "muffin": 3786,
      "awa": 3787,
      "Colorful": 3788,
      "panda": 3789,
      "##hou": 3790,
      "goal": 3791,
      "##ipped": 3792,
      "prot": 3793,
      "figure": 3794,
      "suspended": 3795,
      "##LO": 3796,
      "##where": 3797,
      "need": 3798,
      "decoration": 3799,
      "screens": 3800,
      "unique": 3801,
      "pean": 3802,
      "warning": 3803,
      "music": 3804,
      "fighting": 3805,
      "##hol": 3806,
      "parach": 3807,
      "kitty": 3808,
      "##oney": 3809,
      "scoot": 3810,
      "owl": 3811,
      "Fre": 3812,
      "Sc": 3813,
      "##ided": 3814,
      "ware": 3815,
      "terra": 3816,
      "indoors": 3817,
      "Kitchen": 3818,
      "Bus": 3819,
      "skin": 3820,
      "sne": 3821,
      "project": 3822,
      "load": 3823,
      "simple": 3824,
      "furnished": 3825,
      "WII": 3826,
      "fair": 3827,
      "kay": 3828,
      "plan": 3829,
      "rece": 3830,
      "De": 3831,
      "##pass": 3832,
      "storm": 3833,
      "closet": 3834,
      "savanna": 3835,
      "trim": 3836,
      "##ught": 3837,
      "##uffed": 3838,
      "pigeons": 3839,
      "frisbees": 3840,
      "bra": 3841,
      "fest": 3842,
      "lounge": 3843,
      "than": 3844,
      "##rimp": 3845,
      "surfs": 3846,
      "spraying": 3847,
      "Skateboarder": 3848,
      "Di": 3849,
      "Eng": 3850,
      "GR": 3851,
      "ut": 3852,
      "beak": 3853,
      "really": 3854,
      "broiled": 3855,
      "freight": 3856,
      "##ASE": 3857,
      "complete": 3858,
      "wash": 3859,
      "##owed": 3860,
      "##reline": 3861,
      "cellphones": 3862,
      "pew": 3863,
      "should": 3864,
      "Co": 3865,
      "eag": 3866,
      "##iving": 3867,
      "##icop": 3868,
      "lean": 3869,
      "##ared": 3870,
      "pairs": 3871,
      "photographs": 3872,
      "bald": 3873,
      "shoreline": 3874,
      "Brocc": 3875,
      "berries": 3876,
      "cone": 3877,
      "##KE": 3878,
      "##orting": 3879,
      "overc": 3880,
      "headed": 3881,
      "lob": 3882,
      "shops": 3883,
      "consisting": 3884,
      "COU": 3885,
      "HOL": 3886,
      "##een": 3887,
      "##ok": 3888,
      "stops": 3889,
      "swe": 3890,
      "soap": 3891,
      "vegetation": 3892,
      "barri": 3893,
      "helicop": 3894,
      "points": 3895,
      "knit": 3896,
      "pedestal": 3897,
      "##bbing": 3898,
      "convey": 3899,
      "scooters": 3900,
      "Broccoli": 3901,
      "WAT": 3902,
      "mall": 3903,
      "##ze": 3904,
      "wear": 3905,
      "haul": 3906,
      "Boats": 3907,
      "process": 3908,
      "hip": 3909,
      "tus": 3910,
      "##occ": 3911,
      "##oose": 3912,
      "bean": 3913,
      "shrimp": 3914,
      "beverages": 3915,
      "softball": 3916,
      "Bananas": 3917,
      "tusks": 3918,
      "fed": 3919,
      "##lines": 3920,
      "inf": 3921,
      "inst": 3922,
      "bathing": 3923,
      "comes": 3924,
      "designs": 3925,
      "Par": 3926,
      "##LL": 3927,
      "slightly": 3928,
      "clust": 3929,
      "doub": 3930,
      "##plane": 3931,
      "noteb": 3932,
      "DOG": 3933,
      "Ph": 3934,
      "##za": 3935,
      "##xes": 3936,
      "grin": 3937,
      "skyline": 3938,
      "##anger": 3939,
      "crossed": 3940,
      "rustic": 3941,
      "##wards": 3942,
      "healthy": 3943,
      "SM": 3944,
      "fact": 3945,
      "puts": 3946,
      "##gie": 3947,
      "##rots": 3948,
      "##riental": 3949,
      "##ifl": 3950,
      "arri": 3951,
      "positioned": 3952,
      "Santa": 3953,
      "cans": 3954,
      "valley": 3955,
      "##dled": 3956,
      "##ret": 3957,
      "ath": 3958,
      "reg": 3959,
      "bedsp": 3960,
      "spac": 3961,
      "meeting": 3962,
      "##ANT": 3963,
      "paddling": 3964,
      "quilt": 3965,
      "BOARD": 3966,
      "charact": 3967,
      "snacks": 3968,
      "PERS": 3969,
      "care": 3970,
      "fat": 3971,
      "##uro": 3972,
      "these": 3973,
      "##illage": 3974,
      "wading": 3975,
      "slicing": 3976,
      "peel": 3977,
      "peace": 3978,
      "pens": 3979,
      "approaches": 3980,
      "observing": 3981,
      "toothpaste": 3982,
      "fixtures": 3983,
      "helicopter": 3984,
      "Lu": 3985,
      "act": 3986,
      "stem": 3987,
      "strange": 3988,
      "site": 3989,
      "##ulifl": 3990,
      "remod": 3991,
      "drawing": 3992,
      "reflecting": 3993,
      "PERSON": 3994,
      "sie": 3995,
      "village": 3996,
      "##oping": 3997,
      "sideways": 3998,
      "waterway": 3999,
      "grabbing": 4000,
      "deer": 4001,
      "raft": 4002,
      "hangar": 4003,
      "material": 4004,
      "##AND": 4005,
      "catchers": 4006,
      "knives": 4007,
      "##ROOM": 4008,
      "Can": 4009,
      "Don": 4010,
      "Kids": 4011,
      "Teddy": 4012,
      "wre": 4013,
      "wand": 4014,
      "##apple": 4015,
      "direct": 4016,
      "##uliflower": 4017,
      "FR": 4018,
      "Pair": 4019,
      "hi": 4020,
      "kis": 4021,
      "trough": 4022,
      "##erence": 4023,
      "reach": 4024,
      "herding": 4025,
      "numbers": 4026,
      "caught": 4027,
      "##IGH": 4028,
      "leaping": 4029,
      "attempts": 4030,
      "faucet": 4031,
      "Fresh": 4032,
      "factory": 4033,
      "fol": 4034,
      "fry": 4035,
      "tier": 4036,
      "##ebo": 4037,
      "That": 4038,
      "dried": 4039,
      "exam": 4040,
      "turtle": 4041,
      "print": 4042,
      "adjusting": 4043,
      "illuminated": 4044,
      "Different": 4045,
      "lis": 4046,
      "tight": 4047,
      "##andel": 4048,
      "nightstand": 4049,
      "exc": 4050,
      "##ALKING": 4051,
      "HOLDING": 4052,
      "Af": 4053,
      "HIS": 4054,
      "dan": 4055,
      "##alt": 4056,
      "str": 4057,
      "blur": 4058,
      "waving": 4059,
      "themed": 4060,
      "button": 4061,
      "spoons": 4062,
      "##ucumb": 4063,
      "goods": 4064,
      "Snowboard": 4065,
      "##right": 4066,
      "##kins": 4067,
      "##gant": 4068,
      "##ined": 4069,
      "any": 4070,
      "plaza": 4071,
      "##unches": 4072,
      "##icker": 4073,
      "Plate": 4074,
      "##OOD": 4075,
      "patterned": 4076,
      "slee": 4077,
      "conversation": 4078,
      "repair": 4079,
      "vendor": 4080,
      "BATH": 4081,
      "bedspread": 4082,
      "##urope": 4083,
      "cucumb": 4084,
      "det": 4085,
      "ins": 4086,
      "##ooth": 4087,
      "forks": 4088,
      "slow": 4089,
      "leads": 4090,
      "service": 4091,
      "GIR": 4092,
      "trop": 4093,
      "wake": 4094,
      "cobble": 4095,
      "bagel": 4096,
      "cauliflower": 4097,
      "frog": 4098,
      "##aging": 4099,
      "fully": 4100,
      "mov": 4101,
      "canal": 4102,
      "cartoon": 4103,
      "drawer": 4104,
      "##ode": 4105,
      "tags": 4106,
      "Comm": 4107,
      "second": 4108,
      "Couple": 4109,
      "overcast": 4110,
      "tick": 4111,
      "##ruck": 4112,
      "recor": 4113,
      "##OTO": 4114,
      "students": 4115,
      "terrain": 4116,
      "French": 4117,
      "Sign": 4118,
      "had": 4119,
      "tape": 4120,
      "blu": 4121,
      "headboard": 4122,
      "boogie": 4123,
      "keys": 4124,
      "monument": 4125,
      "mark": 4126,
      "much": 4127,
      "costumes": 4128,
      "##ACH": 4129,
      "peanut": 4130,
      "Pla": 4131,
      "drying": 4132,
      "##ened": 4133,
      "sha": 4134,
      "##amond": 4135,
      "##acks": 4136,
      "lighted": 4137,
      "cheesy": 4138,
      "splashing": 4139,
      "teenager": 4140,
      "strapped": 4141,
      "cluster": 4142,
      "tropical": 4143,
      "Bu": 4144,
      "tasting": 4145,
      "##ta": 4146,
      "##VER": 4147,
      "##YING": 4148,
      "within": 4149,
      "chamel": 4150,
      "basin": 4151,
      "coast": 4152,
      "heard": 4153,
      "##angular": 4154,
      "married": 4155,
      "##cohol": 4156,
      "pattern": 4157,
      "PHOTO": 4158,
      "LOO": 4159,
      "Mo": 4160,
      "New": 4161,
      "Pro": 4162,
      "Sp": 4163,
      "##dition": 4164,
      "##ination": 4165,
      "##ities": 4166,
      "##labor": 4167,
      "greenery": 4168,
      "elegant": 4169,
      "pod": 4170,
      "overpass": 4171,
      "seas": 4172,
      "alcohol": 4173,
      "maj": 4174,
      "unf": 4175,
      "classic": 4176,
      "celebrating": 4177,
      "Male": 4178,
      "bad": 4179,
      "ke": 4180,
      "##val": 4181,
      "roaming": 4182,
      "shar": 4183,
      "upright": 4184,
      "diamond": 4185,
      "conference": 4186,
      "FI": 4187,
      "drop": 4188,
      "hal": 4189,
      "colle": 4190,
      "polka": 4191,
      "staircase": 4192,
      "winding": 4193,
      "portra": 4194,
      "massive": 4195,
      "SN": 4196,
      "US": 4197,
      "handing": 4198,
      "min": 4199,
      "pus": 4200,
      "##ales": 4201,
      "##drop": 4202,
      "atten": 4203,
      "poss": 4204,
      "turns": 4205,
      "freeway": 4206,
      "interesting": 4207,
      "Surfer": 4208,
      "daugh": 4209,
      "language": 4210,
      "skater": 4211,
      "##apan": 4212,
      "split": 4213,
      "sailboats": 4214,
      "console": 4215,
      "unusual": 4216,
      "##ERE": 4217,
      "stance": 4218,
      "buggy": 4219,
      "roast": 4220,
      "limb": 4221,
      "stopping": 4222,
      "dec": 4223,
      "text": 4224,
      "cellular": 4225,
      "gives": 4226,
      "Stuffed": 4227,
      "garnis": 4228,
      "wrapper": 4229,
      "##IGN": 4230,
      "transportation": 4231,
      "doubles": 4232,
      "Cl": 4233,
      "Pass": 4234,
      "cel": 4235,
      "may": 4236,
      "will": 4237,
      "wicker": 4238,
      "##met": 4239,
      "##vest": 4240,
      "##oored": 4241,
      "##ably": 4242,
      "tents": 4243,
      "blood": 4244,
      "recl": 4245,
      "motorcyclists": 4246,
      "##ills": 4247,
      "pineapple": 4248,
      "printer": 4249,
      "figurine": 4250,
      "windsurf": 4251,
      "stroller": 4252,
      "notebook": 4253,
      "kissing": 4254,
      "pug": 4255,
      "puddle": 4256,
      "wi": 4257,
      "##itish": 4258,
      "airbor": 4259,
      "cock": 4260,
      "prov": 4261,
      "unlo": 4262,
      "knee": 4263,
      "ornam": 4264,
      "thumbs": 4265,
      "Le": 4266,
      "come": 4267,
      "frying": 4268,
      "hooked": 4269,
      "tiss": 4270,
      "thing": 4271,
      "chandel": 4272,
      "##sticks": 4273,
      "backdrop": 4274,
      "compan": 4275,
      "remo": 4276,
      "silhou": 4277,
      "wheelchair": 4278,
      "circus": 4279,
      "products": 4280,
      "utility": 4281,
      "grinding": 4282,
      "Europe": 4283,
      "bis": 4284,
      "##ILE": 4285,
      "stable": 4286,
      "##ont": 4287,
      "##elly": 4288,
      "rect": 4289,
      "boarders": 4290,
      "##ific": 4291,
      "curve": 4292,
      "posts": 4293,
      "cleaned": 4294,
      "indicating": 4295,
      "BUS": 4296,
      "##attoo": 4297,
      "jars": 4298,
      "naked": 4299,
      "##AP": 4300,
      "weird": 4301,
      "babies": 4302,
      "rowing": 4303,
      "geese": 4304,
      "depot": 4305,
      "human": 4306,
      "photographer": 4307,
      "learning": 4308,
      "CAT": 4309,
      "cree": 4310,
      "##tie": 4311,
      "##bag": 4312,
      "##rome": 4313,
      "carous": 4314,
      "clos": 4315,
      "elevated": 4316,
      "barbed": 4317,
      "bookcase": 4318,
      "speaking": 4319,
      "muffins": 4320,
      "extended": 4321,
      "brief": 4322,
      "ident": 4323,
      "Afric": 4324,
      "BATHROOM": 4325,
      "Passeng": 4326,
      "dash": 4327,
      "tap": 4328,
      "##ky": 4329,
      "##vi": 4330,
      "compartment": 4331,
      "float": 4332,
      "windowsill": 4333,
      "flav": 4334,
      "butt": 4335,
      "message": 4336,
      "cruise": 4337,
      "include": 4338,
      "mashed": 4339,
      "autom": 4340,
      "shades": 4341,
      "Photo": 4342,
      "podium": 4343,
      "GRO": 4344,
      "Her": 4345,
      "now": 4346,
      "##ixt": 4347,
      "##uits": 4348,
      "##ops": 4349,
      "##ico": 4350,
      "tram": 4351,
      "##hedral": 4352,
      "sails": 4353,
      "oppon": 4354,
      "Plates": 4355,
      "squatting": 4356,
      "parachute": 4357,
      "blueb": 4358,
      "SNOW": 4359,
      "airborne": 4360,
      "Fruit": 4361,
      "Long": 4362,
      "Lots": 4363,
      "TOP": 4364,
      "WALKING": 4365,
      "bor": 4366,
      "nest": 4367,
      "tattoo": 4368,
      "##ose": 4369,
      "##vering": 4370,
      "##stone": 4371,
      "dest": 4372,
      "imp": 4373,
      "donkey": 4374,
      "pathway": 4375,
      "kettle": 4376,
      "toasted": 4377,
      "individuals": 4378,
      "soldiers": 4379,
      "numerous": 4380,
      "eagle": 4381,
      "##ditional": 4382,
      "kept": 4383,
      "portrait": 4384,
      "carousel": 4385,
      "web": 4386,
      "stump": 4387,
      "histor": 4388,
      "div": 4389,
      "drivers": 4390,
      "refrigerators": 4391,
      "##INK": 4392,
      "rocking": 4393,
      "pears": 4394,
      "farmers": 4395,
      "signals": 4396,
      "festival": 4397,
      "listen": 4398,
      "TEN": 4399,
      "parent": 4400,
      "##obile": 4401,
      "##UP": 4402,
      "##ending": 4403,
      "rob": 4404,
      "snugg": 4405,
      "carry": 4406,
      "##shirt": 4407,
      "jackets": 4408,
      "##ATING": 4409,
      "amid": 4410,
      "note": 4411,
      "backpacks": 4412,
      "sweet": 4413,
      "hauling": 4414,
      "daughter": 4415,
      "Al": 4416,
      "La": 4417,
      "Orange": 4418,
      "SOM": 4419,
      "waff": 4420,
      "##ti": 4421,
      "##mit": 4422,
      "##idy": 4423,
      "worn": 4424,
      "cloud": 4425,
      "stripes": 4426,
      "chained": 4427,
      "practice": 4428,
      "photographed": 4429,
      "##UND": 4430,
      "billboard": 4431,
      "begin": 4432,
      "Dou": 4433,
      "Slic": 4434,
      "cast": 4435,
      "ren": 4436,
      "ris": 4437,
      "lie": 4438,
      "such": 4439,
      "asph": 4440,
      "##ational": 4441,
      "blend": 4442,
      "crouching": 4443,
      "lobby": 4444,
      "Lady": 4445,
      "Park": 4446,
      "grown": 4447,
      "map": 4448,
      "pig": 4449,
      "##rew": 4450,
      "third": 4451,
      "planter": 4452,
      "knees": 4453,
      "Skier": 4454,
      "Adults": 4455,
      "stools": 4456,
      "SUR": 4457,
      "figurines": 4458,
      "digital": 4459,
      "powdered": 4460,
      "uncooked": 4461,
      "CAR": 4462,
      "COM": 4463,
      "cras": 4464,
      "elabor": 4465,
      "nur": 4466,
      "##gers": 4467,
      "stom": 4468,
      "plains": 4469,
      "##ams": 4470,
      "##amb": 4471,
      "boardwalk": 4472,
      "slide": 4473,
      "towing": 4474,
      "gravy": 4475,
      "sau": 4476,
      "package": 4477,
      "Clock": 4478,
      "depicting": 4479,
      "PARK": 4480,
      "ROOM": 4481,
      "Sand": 4482,
      "hind": 4483,
      "rot": 4484,
      "##ula": 4485,
      "##bing": 4486,
      "##den": 4487,
      "##HER": 4488,
      "sto": 4489,
      "##ckers": 4490,
      "##ised": 4491,
      "shines": 4492,
      "piles": 4493,
      "seating": 4494,
      "army": 4495,
      "crate": 4496,
      "SKATE": 4497,
      "roller": 4498,
      "sneakers": 4499,
      "asphalt": 4500,
      "Che": 4501,
      "No": 4502,
      "PI": 4503,
      "sol": 4504,
      "##ners": 4505,
      "##atter": 4506,
      "placing": 4507,
      "deser": 4508,
      "disk": 4509,
      "intera": 4510,
      "trip": 4511,
      "##ude": 4512,
      "stalls": 4513,
      "appear": 4514,
      "logo": 4515,
      "strawberry": 4516,
      "hoodie": 4517,
      "medium": 4518,
      "adorned": 4519,
      "TRAIN": 4520,
      "customers": 4521,
      "Police": 4522,
      "warehouse": 4523,
      "conveyor": 4524,
      "Living": 4525,
      "Wood": 4526,
      "oriental": 4527,
      "##NIS": 4528,
      "frozen": 4529,
      "cathedral": 4530,
      "##ions": 4531,
      "##ests": 4532,
      "press": 4533,
      "keyboards": 4534,
      "##REE": 4535,
      "tourists": 4536,
      "competing": 4537,
      "Motorcycles": 4538,
      "closely": 4539,
      "stomach": 4540,
      "FL": 4541,
      "Japan": 4542,
      "##ye": 4543,
      "##ately": 4544,
      "manne": 4545,
      "##ells": 4546,
      "grab": 4547,
      "skysc": 4548,
      "aged": 4549,
      "meats": 4550,
      "tube": 4551,
      "scenic": 4552,
      "##OWN": 4553,
      "PLATE": 4554,
      "returning": 4555,
      "youth": 4556,
      "Horse": 4557,
      "humming": 4558,
      "Comp": 4559,
      "GRASS": 4560,
      "##occocc": 4561,
      "Open": 4562,
      "jelly": 4563,
      "ru": 4564,
      "##ache": 4565,
      "##ex": 4566,
      "##osed": 4567,
      "##ient": 4568,
      "##life": 4569,
      "##PL": 4570,
      "##res": 4571,
      "pocket": 4572,
      "marked": 4573,
      "paintings": 4574,
      "STOP": 4575,
      "spotted": 4576,
      "BLACK": 4577,
      "shuttle": 4578,
      "directly": 4579,
      "call": 4580,
      "foli": 4581,
      "##ikes": 4582,
      "##EE": 4583,
      "##CE": 4584,
      "anch": 4585,
      "shark": 4586,
      "blinds": 4587,
      "selection": 4588,
      "towers": 4589,
      "##gged": 4590,
      "stationary": 4591,
      "meas": 4592,
      "barbe": 4593,
      "soldier": 4594,
      "shrubs": 4595,
      "Road": 4596,
      "Flowers": 4597,
      "savannah": 4598,
      "English": 4599,
      "Canad": 4600,
      "inspe": 4601,
      "##ixture": 4602,
      "TENNIS": 4603,
      "Double": 4604,
      "Del": 4605,
      "SIGN": 4606,
      "UP": 4607,
      "names": 4608,
      "santa": 4609,
      "were": 4610,
      "##hand": 4611,
      "ones": 4612,
      "too": 4613,
      "places": 4614,
      "tex": 4615,
      "chickens": 4616,
      "racks": 4617,
      "British": 4618,
      "foliage": 4619,
      "At": 4620,
      "Fire": 4621,
      "gy": 4622,
      "mixture": 4623,
      "rab": 4624,
      "rings": 4625,
      "tying": 4626,
      "chrome": 4627,
      "##ains": 4628,
      "suite": 4629,
      "roadside": 4630,
      "metro": 4631,
      "attract": 4632,
      "help": 4633,
      "trio": 4634,
      "entering": 4635,
      "fog": 4636,
      "extra": 4637,
      "teenage": 4638,
      "scrat": 4639,
      "shoulders": 4640,
      "barrier": 4641,
      "opponent": 4642,
      "##ively": 4643,
      "##view": 4644,
      "##fall": 4645,
      "##ino": 4646,
      "midair": 4647,
      "dressing": 4648,
      "macar": 4649,
      "maroon": 4650,
      "stretched": 4651,
      "radio": 4652,
      "##strich": 4653,
      "WATER": 4654,
      "Luggage": 4655,
      "LOOKING": 4656,
      "Sandw": 4657,
      "deserted": 4658,
      "All": 4659,
      "Bab": 4660,
      "OUT": 4661,
      "Very": 4662,
      "done": 4663,
      "dug": 4664,
      "ed": 4665,
      "roman": 4666,
      "##aves": 4667,
      "##VING": 4668,
      "##otic": 4669,
      "intently": 4670,
      "spat": 4671,
      "loaf": 4672,
      "diner": 4673,
      "special": 4674,
      "shapes": 4675,
      "subur": 4676,
      "enter": 4677,
      "electrical": 4678,
      "cubicle": 4679,
      "balances": 4680,
      "##ugged": 4681,
      "KIT": 4682,
      "gun": 4683,
      "love": 4684,
      "pay": 4685,
      "##IM": 4686,
      "##gen": 4687,
      "##ishes": 4688,
      "mane": 4689,
      "skil": 4690,
      "checks": 4691,
      "stores": 4692,
      "harness": 4693,
      "chopsticks": 4694,
      "##ONE": 4695,
      "dusty": 4696,
      "Veget": 4697,
      "cherry": 4698,
      "listening": 4699,
      "Light": 4700,
      "bamb": 4701,
      "tee": 4702,
      "##uss": 4703,
      "##GET": 4704,
      "##rong": 4705,
      "##lain": 4706,
      "necks": 4707,
      "##amas": 4708,
      "##rup": 4709,
      "runner": 4710,
      "frck": 4711,
      "archite": 4712,
      "leaned": 4713,
      "texting": 4714,
      "rabb": 4715,
      "bamboo": 4716,
      "dread": 4717,
      "hut": 4718,
      "junk": 4719,
      "ki": 4720,
      "mural": 4721,
      "groups": 4722,
      "sum": 4723,
      "##ummy": 4724,
      "camp": 4725,
      "potter": 4726,
      "unit": 4727,
      "feeds": 4728,
      "commode": 4729,
      "shots": 4730,
      "partly": 4731,
      "stepping": 4732,
      "##fefe": 4733,
      "outfits": 4734,
      "syrup": 4735,
      "crates": 4736,
      "parasol": 4737,
      "Donuts": 4738,
      "AIR": 4739,
      "BASE": 4740,
      "gall": 4741,
      "lower": 4742,
      "tim": 4743,
      "vac": 4744,
      "##NG": 4745,
      "robe": 4746,
      "pies": 4747,
      "alumin": 4748,
      "##shield": 4749,
      "envi": 4750,
      "curious": 4751,
      "cooling": 4752,
      "when": 4753,
      "##ronment": 4754,
      "paj": 4755,
      "newly": 4756,
      "SKI": 4757,
      "rubbing": 4758,
      "Play": 4759,
      "rectangular": 4760,
      "macaroni": 4761,
      "mes": 4762,
      "tiger": 4763,
      "yog": 4764,
      "##cue": 4765,
      "##ern": 4766,
      "##ashing": 4767,
      "##iday": 4768,
      "##cept": 4769,
      "floats": 4770,
      "hear": 4771,
      "apart": 4772,
      "emer": 4773,
      "##engu": 4774,
      "washer": 4775,
      "antel": 4776,
      "artistic": 4777,
      "tourist": 4778,
      "claim": 4779,
      "starting": 4780,
      "angle": 4781,
      "dipping": 4782,
      "dancing": 4783,
      "Snowboarder": 4784,
      "gym": 4785,
      "aluminum": 4786,
      "environment": 4787,
      "HOR": 4788,
      "LAR": 4789,
      "RED": 4790,
      "ferry": 4791,
      "ostrich": 4792,
      "sat": 4793,
      "##ailing": 4794,
      "infl": 4795,
      "##orn": 4796,
      "##celain": 4797,
      "walled": 4798,
      "windshield": 4799,
      "array": 4800,
      "bicyclist": 4801,
      "serves": 4802,
      "cooks": 4803,
      "peering": 4804,
      "##ERY": 4805,
      "touch": 4806,
      "figures": 4807,
      "speeding": 4808,
      "stretches": 4809,
      "Boys": 4810,
      "caption": 4811,
      "saddle": 4812,
      "operating": 4813,
      "infant": 4814,
      "remodeled": 4815,
      "cobblestone": 4816,
      "major": 4817,
      "tissue": 4818,
      "SURF": 4819,
      "Out": 4820,
      "Pedest": 4821,
      "try": 4822,
      "##AGE": 4823,
      "##ckets": 4824,
      "##eter": 4825,
      "##urt": 4826,
      "streetlight": 4827,
      "menu": 4828,
      "wallp": 4829,
      "lodge": 4830,
      "flipping": 4831,
      "spots": 4832,
      "excited": 4833,
      "sharp": 4834,
      "African": 4835,
      "Baby": 4836,
      "ELE": 4837,
      "Female": 4838,
      "Here": 4839,
      "keep": 4840,
      "##yed": 4841,
      "##suit": 4842,
      "##inished": 4843,
      "inform": 4844,
      "start": 4845,
      "needs": 4846,
      "thru": 4847,
      "dozen": 4848,
      "signage": 4849,
      "grassland": 4850,
      "younger": 4851,
      "super": 4852,
      "check": 4853,
      "curved": 4854,
      "##uddled": 4855,
      "policeman": 4856,
      "##ibly": 4857,
      "priv": 4858,
      "spacious": 4859,
      "movie": 4860,
      "skillet": 4861,
      "LARGE": 4862,
      "Pedestri": 4863,
      "CLO": 4864,
      "eas": 4865,
      "pane": 4866,
      "pengu": 4867,
      "##UR": 4868,
      "##erman": 4869,
      "share": 4870,
      "firet": 4871,
      "taco": 4872,
      "hitter": 4873,
      "sauc": 4874,
      "##acting": 4875,
      "penc": 4876,
      "quick": 4877,
      "letter": 4878,
      "extre": 4879,
      "sprinkled": 4880,
      "SUV": 4881,
      "shrubb": 4882,
      "else": 4883,
      "tiered": 4884,
      "Modern": 4885,
      "pajamas": 4886,
      "EATING": 4887,
      "tidy": 4888,
      "##iam": 4889,
      "##fts": 4890,
      "##field": 4891,
      "tort": 4892,
      "somewhere": 4893,
      "waterfall": 4894,
      "alarm": 4895,
      "##umn": 4896,
      "demon": 4897,
      "mountainous": 4898,
      "clearing": 4899,
      "unri": 4900,
      "amer": 4901,
      "engaged": 4902,
      "entree": 4903,
      "dual": 4904,
      "sofas": 4905,
      "artwork": 4906,
      "craft": 4907,
      "Airlines": 4908,
      "calico": 4909,
      "Bunches": 4910,
      "Batter": 4911,
      "DOWN": 4912,
      "Mar": 4913,
      "fem": 4914,
      "ya": 4915,
      "##onal": 4916,
      "##icip": 4917,
      "though": 4918,
      "plush": 4919,
      "ships": 4920,
      "skates": 4921,
      "supp": 4922,
      "bunny": 4923,
      "##ourmet": 4924,
      "##venue": 4925,
      "mail": 4926,
      "cool": 4927,
      "marsh": 4928,
      "carriages": 4929,
      "Smiling": 4930,
      "glowing": 4931,
      "stunts": 4932,
      "##ILD": 4933,
      "##flowers": 4934,
      "rubber": 4935,
      "European": 4936,
      "wallpaper": 4937,
      "Bic": 4938,
      "##ails": 4939,
      "##het": 4940,
      "rode": 4941,
      "bowling": 4942,
      "memb": 4943,
      "barren": 4944,
      "feathers": 4945,
      "balance": 4946,
      "porcelain": 4947,
      "furnishing": 4948,
      "awaiting": 4949,
      "skinny": 4950,
      "border": 4951,
      "shrubbery": 4952,
      "BED": 4953,
      "Em": 4954,
      "Older": 4955,
      "So": 4956,
      "Sil": 4957,
      "maker": 4958,
      "##utes": 4959,
      "##str": 4960,
      "swan": 4961,
      "banner": 4962,
      "cutter": 4963,
      "bigger": 4964,
      "ovens": 4965,
      "capped": 4966,
      "tagged": 4967,
      "pigeon": 4968,
      "##IGHT": 4969,
      "unfinished": 4970,
      "identical": 4971,
      "elaborate": 4972,
      "For": 4973,
      "Hand": 4974,
      "LI": 4975,
      "caut": 4976,
      "dam": 4977,
      "fle": 4978,
      "occ": 4979,
      "##mar": 4980,
      "##rent": 4981,
      "##ilted": 4982,
      "##icap": 4983,
      "coke": 4984,
      "weeds": 4985,
      "cong": 4986,
      "viewed": 4987,
      "notes": 4988,
      "appliance": 4989,
      "stained": 4990,
      "farmer": 4991,
      "biker": 4992,
      "Inside": 4993,
      "fingers": 4994,
      "spatula": 4995,
      "RE": 4996,
      "SIDE": 4997,
      "gaming": 4998,
      "moored": 4999
    },
    "merges": [
      [
        "##i",
        "##n"
      ],
      [
        "##in",
        "##g"
      ],
      [
        "##i",
        "##t"
      ],
      [
        "##h",
        "##e"
      ],
      [
        "##a",
        "##n"
      ],
      [
        "##e",
        "##r"
      ],
      [
        "o",
        "##n"
      ],
      [
        "##l",
        "##e"
      ],
      [
        "o",
        "##f"
      ],
      [
        "##a",
        "##t"
      ],
      [
        "##r",
        "##e"
      ],
      [
        "i",
        "##n"
      ],
      [
        "t",
        "##he"
      ],
      [
        "##a",
        "##r"
      ],
      [
        "a",
        "##n"
      ],
      [
        "##r",
        "##o"
      ],
      [
        "w",
        "##it"
      ],
      [
        "wit",
        "##h"
      ],
      [
        "an",
        "##d"
      ],
      [
        "##a",
        "##l"
      ],
      [
        "##e",
        "##n"
      ],
      [
        "##o",
        "##m"
      ],
      [
        "s",
        "##t"
      ],
      [
        "t",
        "##o"
      ],
      [
        "##e",
        "##d"
      ],
      [
        "##d",
        "##ing"
      ],
      [
        "##e",
        "##s"
      ],
      [
        "##a",
        "##s"
      ],
      [
        "##c",
        "##k"
      ],
      [
        "##o",
        "##w"
      ],
      [
        "##o",
        "##n"
      ],
      [
        "i",
        "##s"
      ],
      [
        "##e",
        "##t"
      ],
      [
        "##i",
        "##r"
      ],
      [
        "##o",
        "##r"
      ],
      [
        "##o",
        "##u"
      ],
      [
        "##i",
        "##s"
      ],
      [
        "m",
        "##an"
      ],
      [
        "##t",
        "##ing"
      ],
      [
        "##l",
        "##a"
      ],
      [
        "##o",
        "##p"
      ],
      [
        "s",
        "##it"
      ],
      [
        "##c",
        "##h"
      ],
      [
        "##al",
        "##l"
      ],
      [
        "##r",
        "##a"
      ],
      [
        "##o",
        "##o"
      ],
      [
        "##e",
        "##l"
      ],
      [
        "##i",
        "##d"
      ],
      [
        "##i",
        "##l"
      ],
      [
        "w",
        "##h"
      ],
      [
        "sit",
        "##ting"
      ],
      [
        "##ro",
        "##u"
      ],
      [
        "n",
        "##e"
      ],
      [
        "##o",
        "##t"
      ],
      [
        "st",
        "##an"
      ],
      [
        "##o",
        "##l"
      ],
      [
        "##er",
        "##s"
      ],
      [
        "##it",
        "##e"
      ],
      [
        "##i",
        "##g"
      ],
      [
        "##a",
        "##b"
      ],
      [
        "##w",
        "##o"
      ],
      [
        "##ar",
        "##d"
      ],
      [
        "##i",
        "##c"
      ],
      [
        "b",
        "##u"
      ],
      [
        "##g",
        "##e"
      ],
      [
        "##y",
        "##ing"
      ],
      [
        "##u",
        "##t"
      ],
      [
        "a",
        "##t"
      ],
      [
        "s",
        "##k"
      ],
      [
        "a",
        "##re"
      ],
      [
        "##k",
        "##ing"
      ],
      [
        "##e",
        "##op"
      ],
      [
        "##eop",
        "##le"
      ],
      [
        "t",
        "##h"
      ],
      [
        "stan",
        "##ding"
      ],
      [
        "##e",
        "##b"
      ],
      [
        "b",
        "##e"
      ],
      [
        "wh",
        "##ite"
      ],
      [
        "##id",
        "##e"
      ],
      [
        "##ab",
        "##le"
      ],
      [
        "t",
        "##ra"
      ],
      [
        "##o",
        "##ard"
      ],
      [
        "w",
        "##om"
      ],
      [
        "p",
        "##eople"
      ],
      [
        "##u",
        "##r"
      ],
      [
        "##a",
        "##d"
      ],
      [
        "##x",
        "##t"
      ],
      [
        "r",
        "##o"
      ],
      [
        "ne",
        "##xt"
      ],
      [
        "wom",
        "##an"
      ],
      [
        "i",
        "##t"
      ],
      [
        "##n",
        "##t"
      ],
      [
        "t",
        "##able"
      ],
      [
        "p",
        "##la"
      ],
      [
        "p",
        "##l"
      ],
      [
        "##n",
        "##d"
      ],
      [
        "##v",
        "##er"
      ],
      [
        "h",
        "##ol"
      ],
      [
        "d",
        "##o"
      ],
      [
        "c",
        "##ou"
      ],
      [
        "g",
        "##rou"
      ],
      [
        "st",
        "##re"
      ],
      [
        "##oo",
        "##d"
      ],
      [
        "##i",
        "##le"
      ],
      [
        "##as",
        "##s"
      ],
      [
        "##l",
        "##o"
      ],
      [
        "f",
        "##i"
      ],
      [
        "stre",
        "##et"
      ],
      [
        "##f",
        "##f"
      ],
      [
        "f",
        "##ro"
      ],
      [
        "b",
        "##o"
      ],
      [
        "hol",
        "##ding"
      ],
      [
        "T",
        "##he"
      ],
      [
        "##he",
        "##r"
      ],
      [
        "p",
        "##ar"
      ],
      [
        "l",
        "##a"
      ],
      [
        "to",
        "##p"
      ],
      [
        "##at",
        "##e"
      ],
      [
        "##ow",
        "##n"
      ],
      [
        "grou",
        "##p"
      ],
      [
        "##c",
        "##e"
      ],
      [
        "##om",
        "##e"
      ],
      [
        "s",
        "##h"
      ],
      [
        "##ers",
        "##on"
      ],
      [
        "b",
        "##at"
      ],
      [
        "##a",
        "##m"
      ],
      [
        "p",
        "##erson"
      ],
      [
        "##s",
        "##e"
      ],
      [
        "##a",
        "##ck"
      ],
      [
        "d",
        "##own"
      ],
      [
        "T",
        "##wo"
      ],
      [
        "t",
        "##wo"
      ],
      [
        "c",
        "##h"
      ],
      [
        "th",
        "##at"
      ],
      [
        "##an",
        "##t"
      ],
      [
        "##r",
        "##i"
      ],
      [
        "s",
        "##m"
      ],
      [
        "w",
        "##at"
      ],
      [
        "c",
        "##at"
      ],
      [
        "##el",
        "##d"
      ],
      [
        "s",
        "##n"
      ],
      [
        "##c",
        "##he"
      ],
      [
        "r",
        "##i"
      ],
      [
        "f",
        "##l"
      ],
      [
        "fi",
        "##eld"
      ],
      [
        "p",
        "##i"
      ],
      [
        "##ar",
        "##ge"
      ],
      [
        "t",
        "##en"
      ],
      [
        "##n",
        "##is"
      ],
      [
        "##la",
        "##ck"
      ],
      [
        "##an",
        "##d"
      ],
      [
        "sn",
        "##ow"
      ],
      [
        "do",
        "##g"
      ],
      [
        "ten",
        "##nis"
      ],
      [
        "g",
        "##ir"
      ],
      [
        "##a",
        "##ch"
      ],
      [
        "l",
        "##arge"
      ],
      [
        "b",
        "##lack"
      ],
      [
        "##v",
        "##e"
      ],
      [
        "##r",
        "##u"
      ],
      [
        "##n",
        "##g"
      ],
      [
        "##k",
        "##e"
      ],
      [
        "u",
        "##p"
      ],
      [
        "s",
        "##ome"
      ],
      [
        "tra",
        "##in"
      ],
      [
        "fro",
        "##nt"
      ],
      [
        "c",
        "##ar"
      ],
      [
        "par",
        "##k"
      ],
      [
        "##ro",
        "##om"
      ],
      [
        "pl",
        "##ate"
      ],
      [
        "##i",
        "##on"
      ],
      [
        "b",
        "##as"
      ],
      [
        "##ig",
        "##n"
      ],
      [
        "ro",
        "##om"
      ],
      [
        "##ig",
        "##h"
      ],
      [
        "w",
        "##al"
      ],
      [
        "ri",
        "##ding"
      ],
      [
        "##ro",
        "##w"
      ],
      [
        "c",
        "##lo"
      ],
      [
        "s",
        "##ide"
      ],
      [
        "g",
        "##r"
      ],
      [
        "bu",
        "##s"
      ],
      [
        "##el",
        "##l"
      ],
      [
        "o",
        "##ut"
      ],
      [
        "s",
        "##ign"
      ],
      [
        "##re",
        "##e"
      ],
      [
        "s",
        "##ur"
      ],
      [
        "sm",
        "##all"
      ],
      [
        "b",
        "##l"
      ],
      [
        "r",
        "##ed"
      ],
      [
        "k",
        "##it"
      ],
      [
        "##u",
        "##e"
      ],
      [
        "ne",
        "##ar"
      ],
      [
        "wat",
        "##er"
      ],
      [
        "bat",
        "##h"
      ],
      [
        "##u",
        "##l"
      ],
      [
        "h",
        "##is"
      ],
      [
        "##a",
        "##in"
      ],
      [
        "##u",
        "##re"
      ],
      [
        "r",
        "##e"
      ],
      [
        "##ou",
        "##ng"
      ],
      [
        "##eb",
        "##all"
      ],
      [
        "gr",
        "##ass"
      ],
      [
        "##b",
        "##oard"
      ],
      [
        "p",
        "##h"
      ],
      [
        "##in",
        "##d"
      ],
      [
        "##v",
        "##ing"
      ],
      [
        "pla",
        "##ying"
      ],
      [
        "##p",
        "##le"
      ],
      [
        "##rou",
        "##nd"
      ],
      [
        "bas",
        "##eball"
      ],
      [
        "##a",
        "##y"
      ],
      [
        "b",
        "##ed"
      ],
      [
        "##in",
        "##k"
      ],
      [
        "a",
        "##ir"
      ],
      [
        "sur",
        "##f"
      ],
      [
        "bu",
        "##il"
      ],
      [
        "##igh",
        "##t"
      ],
      [
        "y",
        "##oung"
      ],
      [
        "sk",
        "##at"
      ],
      [
        "##re",
        "##en"
      ],
      [
        "buil",
        "##ding"
      ],
      [
        "##p",
        "##h"
      ],
      [
        "f",
        "##ood"
      ],
      [
        "##a",
        "##ir"
      ],
      [
        "bath",
        "##room"
      ],
      [
        "##on",
        "##e"
      ],
      [
        "skat",
        "##eb"
      ],
      [
        "##en",
        "##t"
      ],
      [
        "wal",
        "##king"
      ],
      [
        "##s",
        "##t"
      ],
      [
        "l",
        "##oo"
      ],
      [
        "b",
        "##y"
      ],
      [
        "pla",
        "##y"
      ],
      [
        "##s",
        "##s"
      ],
      [
        "bl",
        "##ue"
      ],
      [
        "##z",
        "##z"
      ],
      [
        "##m",
        "##b"
      ],
      [
        "##p",
        "##t"
      ],
      [
        "##y",
        "##c"
      ],
      [
        "c",
        "##om"
      ],
      [
        "##che",
        "##n"
      ],
      [
        "kit",
        "##chen"
      ],
      [
        "skateb",
        "##oard"
      ],
      [
        "w",
        "##ood"
      ],
      [
        "pi",
        "##zz"
      ],
      [
        "l",
        "##i"
      ],
      [
        "h",
        "##or"
      ],
      [
        "s",
        "##u"
      ],
      [
        "##s",
        "##ide"
      ],
      [
        "##yc",
        "##le"
      ],
      [
        "c",
        "##o"
      ],
      [
        "##ir",
        "##t"
      ],
      [
        "##ar",
        "##ing"
      ],
      [
        "g",
        "##reen"
      ],
      [
        "A",
        "##n"
      ],
      [
        "h",
        "##as"
      ],
      [
        "park",
        "##ed"
      ],
      [
        "m",
        "##ot"
      ],
      [
        "h",
        "##er"
      ],
      [
        "wh",
        "##ile"
      ],
      [
        "b",
        "##ack"
      ],
      [
        "bo",
        "##y"
      ],
      [
        "##e",
        "##e"
      ],
      [
        "pizz",
        "##a"
      ],
      [
        "e",
        "##le"
      ],
      [
        "##d",
        "##s"
      ],
      [
        "f",
        "##or"
      ],
      [
        "p",
        "##o"
      ],
      [
        "ro",
        "##ad"
      ],
      [
        "##a",
        "##ge"
      ],
      [
        "o",
        "##t"
      ],
      [
        "##ile",
        "##t"
      ],
      [
        "ot",
        "##her"
      ],
      [
        "to",
        "##ilet"
      ],
      [
        "##c",
        "##t"
      ],
      [
        "##am",
        "##e"
      ],
      [
        "##i",
        "##e"
      ],
      [
        "be",
        "##ach"
      ],
      [
        "mot",
        "##or"
      ],
      [
        "##t",
        "##le"
      ],
      [
        "be",
        "##ar"
      ],
      [
        "##ph",
        "##ant"
      ],
      [
        "e",
        "##at"
      ],
      [
        "b",
        "##all"
      ],
      [
        "sk",
        "##i"
      ],
      [
        "clo",
        "##ck"
      ],
      [
        "d",
        "##es"
      ],
      [
        "##an",
        "##e"
      ],
      [
        "b",
        "##en"
      ],
      [
        "##g",
        "##h"
      ],
      [
        "##it",
        "##y"
      ],
      [
        "##a",
        "##ke"
      ],
      [
        "##e",
        "##p"
      ],
      [
        "##a",
        "##ff"
      ],
      [
        "ele",
        "##phant"
      ],
      [
        "g",
        "##ame"
      ],
      [
        "##re",
        "##l"
      ],
      [
        "fl",
        "##ying"
      ],
      [
        "##i",
        "##m"
      ],
      [
        "w",
        "##e"
      ],
      [
        "##d",
        "##y"
      ],
      [
        "##r",
        "##an"
      ],
      [
        "gir",
        "##l"
      ],
      [
        "##t",
        "##ure"
      ],
      [
        "loo",
        "##king"
      ],
      [
        "o",
        "##ver"
      ],
      [
        "motor",
        "##c"
      ],
      [
        "##mb",
        "##rel"
      ],
      [
        "gir",
        "##aff"
      ],
      [
        "u",
        "##mbrel"
      ],
      [
        "com",
        "##p"
      ],
      [
        "##ck",
        "##s"
      ],
      [
        "##le",
        "##d"
      ],
      [
        "la",
        "##ying"
      ],
      [
        "##pt",
        "##op"
      ],
      [
        "##g",
        "##et"
      ],
      [
        "c",
        "##ity"
      ],
      [
        "la",
        "##ptop"
      ],
      [
        "p",
        "##ic"
      ],
      [
        "##il",
        "##d"
      ],
      [
        "s",
        "##ink"
      ],
      [
        "cou",
        "##ple"
      ],
      [
        "w",
        "##a"
      ],
      [
        "motorc",
        "##ycle"
      ],
      [
        "m",
        "##en"
      ],
      [
        "c",
        "##on"
      ],
      [
        "we",
        "##aring"
      ],
      [
        "s",
        "##e"
      ],
      [
        "m",
        "##ou"
      ],
      [
        "play",
        "##er"
      ],
      [
        "##il",
        "##l"
      ],
      [
        "##row",
        "##n"
      ],
      [
        "t",
        "##ru"
      ],
      [
        "wood",
        "##en"
      ],
      [
        "pic",
        "##ture"
      ],
      [
        "s",
        "##he"
      ],
      [
        "w",
        "##ind"
      ],
      [
        "##l",
        "##ass"
      ],
      [
        "b",
        "##oard"
      ],
      [
        "comp",
        "##ut"
      ],
      [
        "ben",
        "##ch"
      ],
      [
        "s",
        "##l"
      ],
      [
        "d",
        "##is"
      ],
      [
        "z",
        "##eb"
      ],
      [
        "b",
        "##rown"
      ],
      [
        "##l",
        "##d"
      ],
      [
        "T",
        "##h"
      ],
      [
        "to",
        "##w"
      ],
      [
        "b",
        "##ir"
      ],
      [
        "l",
        "##e"
      ],
      [
        "##in",
        "##e"
      ],
      [
        "eat",
        "##ing"
      ],
      [
        "##ell",
        "##ow"
      ],
      [
        "wind",
        "##ow"
      ],
      [
        "li",
        "##ving"
      ],
      [
        "des",
        "##k"
      ],
      [
        "g",
        "##ra"
      ],
      [
        "##o",
        "##re"
      ],
      [
        "##r",
        "##is"
      ],
      [
        "ch",
        "##air"
      ],
      [
        "s",
        "##and"
      ],
      [
        "##r",
        "##t"
      ],
      [
        "##as",
        "##e"
      ],
      [
        "y",
        "##ellow"
      ],
      [
        "fro",
        "##m"
      ],
      [
        "w",
        "##all"
      ],
      [
        "c",
        "##ake"
      ],
      [
        "ch",
        "##ild"
      ],
      [
        "hor",
        "##se"
      ],
      [
        "a",
        "##round"
      ],
      [
        "a",
        "##l"
      ],
      [
        "##u",
        "##m"
      ],
      [
        "in",
        "##t"
      ],
      [
        "##ot",
        "##o"
      ],
      [
        "comput",
        "##er"
      ],
      [
        "bo",
        "##at"
      ],
      [
        "g",
        "##lass"
      ],
      [
        "##a",
        "##p"
      ],
      [
        "ph",
        "##oto"
      ],
      [
        "##ver",
        "##al"
      ],
      [
        "l",
        "##it"
      ],
      [
        "##on",
        "##g"
      ],
      [
        "##nd",
        "##er"
      ],
      [
        "##rou",
        "##gh"
      ],
      [
        "air",
        "##p"
      ],
      [
        "sit",
        "##s"
      ],
      [
        "st",
        "##op"
      ],
      [
        "s",
        "##c"
      ],
      [
        "h",
        "##and"
      ],
      [
        "##u",
        "##n"
      ],
      [
        "the",
        "##ir"
      ],
      [
        "sk",
        "##y"
      ],
      [
        "##ic",
        "##e"
      ],
      [
        "th",
        "##rough"
      ],
      [
        "s",
        "##w"
      ],
      [
        "are",
        "##a"
      ],
      [
        "tru",
        "##ck"
      ],
      [
        "bu",
        "##n"
      ],
      [
        "fi",
        "##re"
      ],
      [
        "l",
        "##ight"
      ],
      [
        "cou",
        "##rt"
      ],
      [
        "##c",
        "##c"
      ],
      [
        "f",
        "##lo"
      ],
      [
        "##t",
        "##er"
      ],
      [
        "surf",
        "##board"
      ],
      [
        "##p",
        "##en"
      ],
      [
        "ph",
        "##one"
      ],
      [
        "##k",
        "##s"
      ],
      [
        "o",
        "##ld"
      ],
      [
        "h",
        "##e"
      ],
      [
        "co",
        "##ver"
      ],
      [
        "a",
        "##s"
      ],
      [
        "t",
        "##ree"
      ],
      [
        "##s",
        "##h"
      ],
      [
        "##ack",
        "##et"
      ],
      [
        "b",
        "##ow"
      ],
      [
        "u",
        "##nder"
      ],
      [
        "##ris",
        "##b"
      ],
      [
        "d",
        "##e"
      ],
      [
        "##a",
        "##g"
      ],
      [
        "b",
        "##an"
      ],
      [
        "umbrel",
        "##la"
      ],
      [
        "##or",
        "##t"
      ],
      [
        "##il",
        "##led"
      ],
      [
        "t",
        "##e"
      ],
      [
        "##ul",
        "##l"
      ],
      [
        "su",
        "##it"
      ],
      [
        "##w",
        "##ay"
      ],
      [
        "##s",
        "##es"
      ],
      [
        "##as",
        "##t"
      ],
      [
        "##o",
        "##ve"
      ],
      [
        "c",
        "##ell"
      ],
      [
        "v",
        "##e"
      ],
      [
        "s",
        "##p"
      ],
      [
        "##risb",
        "##ee"
      ],
      [
        "o",
        "##pen"
      ],
      [
        "f",
        "##illed"
      ],
      [
        "clo",
        "##se"
      ],
      [
        "c",
        "##ow"
      ],
      [
        "t",
        "##re"
      ],
      [
        "bow",
        "##l"
      ],
      [
        "##er",
        "##y"
      ],
      [
        "##ro",
        "##ss"
      ],
      [
        "cou",
        "##nt"
      ],
      [
        "##p",
        "##ed"
      ],
      [
        "cover",
        "##ed"
      ],
      [
        "lit",
        "##tle"
      ],
      [
        "r",
        "##a"
      ],
      [
        "out",
        "##side"
      ],
      [
        "ban",
        "##an"
      ],
      [
        "##ri",
        "##ck"
      ],
      [
        "giraff",
        "##e"
      ],
      [
        "on",
        "##e"
      ],
      [
        "l",
        "##ot"
      ],
      [
        "e",
        "##ach"
      ],
      [
        "##g",
        "##round"
      ],
      [
        "tre",
        "##es"
      ],
      [
        "##es",
        "##t"
      ],
      [
        "c",
        "##ol"
      ],
      [
        "c",
        "##ut"
      ],
      [
        "c",
        "##l"
      ],
      [
        "bun",
        "##ch"
      ],
      [
        "fl",
        "##ow"
      ],
      [
        "##at",
        "##ion"
      ],
      [
        "o",
        "##ran"
      ],
      [
        "cou",
        "##ch"
      ],
      [
        "The",
        "##re"
      ],
      [
        "k",
        "##ite"
      ],
      [
        "bir",
        "##d"
      ],
      [
        "sh",
        "##irt"
      ],
      [
        "d",
        "##i"
      ],
      [
        "##ir",
        "##ro"
      ],
      [
        "m",
        "##irro"
      ],
      [
        "##g",
        "##g"
      ],
      [
        "mirro",
        "##r"
      ],
      [
        "flo",
        "##or"
      ],
      [
        "con",
        "##t"
      ],
      [
        "##s",
        "##ing"
      ],
      [
        "##p",
        "##la"
      ],
      [
        "##ad",
        "##y"
      ],
      [
        "##e",
        "##m"
      ],
      [
        "t",
        "##a"
      ],
      [
        "##u",
        "##p"
      ],
      [
        "##i",
        "##f"
      ],
      [
        "##p",
        "##ing"
      ],
      [
        "##h",
        "##ind"
      ],
      [
        "of",
        "##f"
      ],
      [
        "be",
        "##hind"
      ],
      [
        "back",
        "##ground"
      ],
      [
        "f",
        "##en"
      ],
      [
        "b",
        "##i"
      ],
      [
        "##v",
        "##es"
      ],
      [
        "##i",
        "##ch"
      ],
      [
        "sand",
        "##w"
      ],
      [
        "Th",
        "##ree"
      ],
      [
        "it",
        "##s"
      ],
      [
        "pl",
        "##ane"
      ],
      [
        "v",
        "##ery"
      ],
      [
        "##al",
        "##k"
      ],
      [
        "sh",
        "##ow"
      ],
      [
        "pi",
        "##e"
      ],
      [
        "a",
        "##p"
      ],
      [
        "h",
        "##ot"
      ],
      [
        "##ie",
        "##w"
      ],
      [
        "a",
        "##b"
      ],
      [
        "mou",
        "##nt"
      ],
      [
        "d",
        "##ou"
      ],
      [
        "r",
        "##un"
      ],
      [
        "she",
        "##ep"
      ],
      [
        "##r",
        "##as"
      ],
      [
        "tra",
        "##cks"
      ],
      [
        "sw",
        "##ing"
      ],
      [
        "int",
        "##o"
      ],
      [
        "##y",
        "##d"
      ],
      [
        "##ed",
        "##dy"
      ],
      [
        "##ce",
        "##an"
      ],
      [
        "##u",
        "##b"
      ],
      [
        "o",
        "##cean"
      ],
      [
        "##e",
        "##at"
      ],
      [
        "h",
        "##yd"
      ],
      [
        "sk",
        "##is"
      ],
      [
        "##ct",
        "##ion"
      ],
      [
        "s",
        "##o"
      ],
      [
        "d",
        "##ri"
      ],
      [
        "h",
        "##ill"
      ],
      [
        "##w",
        "##alk"
      ],
      [
        "airp",
        "##l"
      ],
      [
        "r",
        "##acket"
      ],
      [
        "t",
        "##eddy"
      ],
      [
        "##get",
        "##her"
      ],
      [
        "to",
        "##gether"
      ],
      [
        "grou",
        "##nd"
      ],
      [
        "##q",
        "##u"
      ],
      [
        "re",
        "##f"
      ],
      [
        "##d",
        "##le"
      ],
      [
        "count",
        "##er"
      ],
      [
        "##or",
        "##s"
      ],
      [
        "v",
        "##iew"
      ],
      [
        "##ff",
        "##ic"
      ],
      [
        "##ch",
        "##ing"
      ],
      [
        "m",
        "##id"
      ],
      [
        "##r",
        "##ant"
      ],
      [
        "##et",
        "##s"
      ],
      [
        "hyd",
        "##rant"
      ],
      [
        "##l",
        "##y"
      ],
      [
        "p",
        "##re"
      ],
      [
        "##t",
        "##s"
      ],
      [
        "dis",
        "##pla"
      ],
      [
        "S",
        "##e"
      ],
      [
        "in",
        "##side"
      ],
      [
        "d",
        "##irt"
      ],
      [
        "sandw",
        "##ich"
      ],
      [
        "wa",
        "##ve"
      ],
      [
        "##an",
        "##g"
      ],
      [
        "st",
        "##u"
      ],
      [
        "zeb",
        "##ra"
      ],
      [
        "l",
        "##u"
      ],
      [
        "side",
        "##walk"
      ],
      [
        "tra",
        "##ffic"
      ],
      [
        "fen",
        "##ce"
      ],
      [
        "f",
        "##risbee"
      ],
      [
        "snow",
        "##board"
      ],
      [
        "v",
        "##ase"
      ],
      [
        "Se",
        "##veral"
      ],
      [
        "##le",
        "##s"
      ],
      [
        "stan",
        "##ds"
      ],
      [
        "ve",
        "##get"
      ],
      [
        "flow",
        "##ers"
      ],
      [
        "g",
        "##o"
      ],
      [
        "##r",
        "##y"
      ],
      [
        "b",
        "##ro"
      ],
      [
        "airpl",
        "##ane"
      ],
      [
        "displa",
        "##y"
      ],
      [
        "##or",
        "##m"
      ],
      [
        "par",
        "##king"
      ],
      [
        "##che",
        "##s"
      ],
      [
        "mount",
        "##ain"
      ],
      [
        "oran",
        "##ge"
      ],
      [
        "b",
        "##ig"
      ],
      [
        "c",
        "##he"
      ],
      [
        "P",
        "##eople"
      ],
      [
        "##re",
        "##ss"
      ],
      [
        "veget",
        "##able"
      ],
      [
        "man",
        "##y"
      ],
      [
        "wom",
        "##en"
      ],
      [
        "he",
        "##ad"
      ],
      [
        "b",
        "##ab"
      ],
      [
        "hor",
        "##ses"
      ],
      [
        "m",
        "##et"
      ],
      [
        "##a",
        "##k"
      ],
      [
        "##im",
        "##al"
      ],
      [
        "t",
        "##ie"
      ],
      [
        "b",
        "##oo"
      ],
      [
        "tow",
        "##er"
      ],
      [
        "##ru",
        "##it"
      ],
      [
        "t",
        "##all"
      ],
      [
        "gra",
        "##z"
      ],
      [
        "##n",
        "##er"
      ],
      [
        "an",
        "##imal"
      ],
      [
        "bab",
        "##y"
      ],
      [
        "##d",
        "##o"
      ],
      [
        "th",
        "##ree"
      ],
      [
        "##ot",
        "##her"
      ],
      [
        "j",
        "##um"
      ],
      [
        "p",
        "##ass"
      ],
      [
        "M",
        "##an"
      ],
      [
        "zeb",
        "##ras"
      ],
      [
        "##ff",
        "##er"
      ],
      [
        "##ffer",
        "##ent"
      ],
      [
        "##op",
        "##e"
      ],
      [
        "f",
        "##ruit"
      ],
      [
        "an",
        "##other"
      ],
      [
        "##il",
        "##ing"
      ],
      [
        "##i",
        "##es"
      ],
      [
        "stan",
        "##d"
      ],
      [
        "##ou",
        "##r"
      ],
      [
        "mid",
        "##dle"
      ],
      [
        "##b",
        "##le"
      ],
      [
        "##at",
        "##or"
      ],
      [
        "pl",
        "##at"
      ],
      [
        "##et",
        "##ting"
      ],
      [
        "di",
        "##fferent"
      ],
      [
        "elephant",
        "##s"
      ],
      [
        "pie",
        "##ce"
      ],
      [
        "do",
        "##ing"
      ],
      [
        "##k",
        "##et"
      ],
      [
        "banan",
        "##as"
      ],
      [
        "vegetable",
        "##s"
      ],
      [
        "h",
        "##ang"
      ],
      [
        "grass",
        "##y"
      ],
      [
        "##a",
        "##ce"
      ],
      [
        "ski",
        "##ing"
      ],
      [
        "##e",
        "##y"
      ],
      [
        "##ig",
        "##er"
      ],
      [
        "h",
        "##it"
      ],
      [
        "b",
        "##ot"
      ],
      [
        "b",
        "##r"
      ],
      [
        "##re",
        "##n"
      ],
      [
        "be",
        "##ing"
      ],
      [
        "s",
        "##a"
      ],
      [
        "c",
        "##up"
      ],
      [
        "d",
        "##ay"
      ],
      [
        "ref",
        "##r"
      ],
      [
        "##v",
        "##el"
      ],
      [
        "bi",
        "##ke"
      ],
      [
        "##i",
        "##ck"
      ],
      [
        "al",
        "##ong"
      ],
      [
        "refr",
        "##iger"
      ],
      [
        "the",
        "##re"
      ],
      [
        "t",
        "##rick"
      ],
      [
        "snow",
        "##y"
      ],
      [
        "car",
        "##s"
      ],
      [
        "stu",
        "##ff"
      ],
      [
        "f",
        "##ull"
      ],
      [
        "r",
        "##est"
      ],
      [
        "##ur",
        "##ing"
      ],
      [
        "sl",
        "##ope"
      ],
      [
        "st",
        "##ation"
      ],
      [
        "d",
        "##ress"
      ],
      [
        "i",
        "##m"
      ],
      [
        "f",
        "##e"
      ],
      [
        "bo",
        "##x"
      ],
      [
        "##ou",
        "##s"
      ],
      [
        "d",
        "##on"
      ],
      [
        "##a",
        "##ve"
      ],
      [
        "refriger",
        "##ator"
      ],
      [
        "##r",
        "##ying"
      ],
      [
        "##v",
        "##en"
      ],
      [
        "m",
        "##o"
      ],
      [
        "##he",
        "##s"
      ],
      [
        "graz",
        "##ing"
      ],
      [
        "##a",
        "##re"
      ],
      [
        "h",
        "##at"
      ],
      [
        "dri",
        "##ving"
      ],
      [
        "ta",
        "##king"
      ],
      [
        "##ur",
        "##n"
      ],
      [
        "##ar",
        "##i"
      ],
      [
        "##ad",
        "##e"
      ],
      [
        "giraff",
        "##es"
      ],
      [
        "m",
        "##a"
      ],
      [
        "##h",
        "##ing"
      ],
      [
        "##ro",
        "##l"
      ],
      [
        "g",
        "##u"
      ],
      [
        "bro",
        "##cc"
      ],
      [
        "T",
        "##H"
      ],
      [
        "d",
        "##r"
      ],
      [
        "po",
        "##le"
      ],
      [
        "w",
        "##ine"
      ],
      [
        "##n",
        "##if"
      ],
      [
        "c",
        "##row"
      ],
      [
        "##at",
        "##ed"
      ],
      [
        "##che",
        "##d"
      ],
      [
        "cut",
        "##ting"
      ],
      [
        "re",
        "##ady"
      ],
      [
        "stuff",
        "##ed"
      ],
      [
        "te",
        "##le"
      ],
      [
        "##i",
        "##p"
      ],
      [
        "##a",
        "##c"
      ],
      [
        "swing",
        "##ing"
      ],
      [
        "c",
        "##or"
      ],
      [
        "e",
        "##n"
      ],
      [
        "v",
        "##ide"
      ],
      [
        "st",
        "##ove"
      ],
      [
        "c",
        "##am"
      ],
      [
        "c",
        "##le"
      ],
      [
        "crow",
        "##d"
      ],
      [
        "vide",
        "##o"
      ],
      [
        "S",
        "##ome"
      ],
      [
        "d",
        "##uring"
      ],
      [
        "k",
        "##ey"
      ],
      [
        "##gg",
        "##age"
      ],
      [
        "sign",
        "##s"
      ],
      [
        "##l",
        "##as"
      ],
      [
        "##m",
        "##ent"
      ],
      [
        "se",
        "##veral"
      ],
      [
        "c",
        "##ross"
      ],
      [
        "pre",
        "##p"
      ],
      [
        "##t",
        "##h"
      ],
      [
        "the",
        "##m"
      ],
      [
        "im",
        "##age"
      ],
      [
        "cow",
        "##s"
      ],
      [
        "sk",
        "##ate"
      ],
      [
        "p",
        "##ro"
      ],
      [
        "a",
        "##c"
      ],
      [
        "lu",
        "##ggage"
      ],
      [
        "a",
        "##d"
      ],
      [
        "p",
        "##ink"
      ],
      [
        "su",
        "##n"
      ],
      [
        "##v",
        "##is"
      ],
      [
        "hang",
        "##ing"
      ],
      [
        "t",
        "##al"
      ],
      [
        "##ul",
        "##t"
      ],
      [
        "her",
        "##d"
      ],
      [
        "##ut",
        "##s"
      ],
      [
        "ac",
        "##ross"
      ],
      [
        "b",
        "##es"
      ],
      [
        "##ol",
        "##i"
      ],
      [
        "##I",
        "##N"
      ],
      [
        "##es",
        "##s"
      ],
      [
        "##vis",
        "##ion"
      ],
      [
        "ab",
        "##ove"
      ],
      [
        "tele",
        "##vision"
      ],
      [
        "key",
        "##board"
      ],
      [
        "bo",
        "##dy"
      ],
      [
        "w",
        "##or"
      ],
      [
        "l",
        "##o"
      ],
      [
        "umbrel",
        "##las"
      ],
      [
        "tra",
        "##vel"
      ],
      [
        "kit",
        "##es"
      ],
      [
        "a",
        "##r"
      ],
      [
        "do",
        "##or"
      ],
      [
        "f",
        "##r"
      ],
      [
        "dou",
        "##ble"
      ],
      [
        "##er",
        "##a"
      ],
      [
        "l",
        "##ong"
      ],
      [
        "b",
        "##ag"
      ],
      [
        "##i",
        "##i"
      ],
      [
        "p",
        "##air"
      ],
      [
        "p",
        "##ap"
      ],
      [
        "cont",
        "##rol"
      ],
      [
        "##u",
        "##st"
      ],
      [
        "bes",
        "##ide"
      ],
      [
        "##ru",
        "##sh"
      ],
      [
        "glass",
        "##es"
      ],
      [
        "##ck",
        "##er"
      ],
      [
        "suit",
        "##c"
      ],
      [
        "re",
        "##m"
      ],
      [
        "##n",
        "##ing"
      ],
      [
        "##cc",
        "##er"
      ],
      [
        "##it",
        "##ing"
      ],
      [
        "b",
        "##ic"
      ],
      [
        "v",
        "##ari"
      ],
      [
        "p",
        "##er"
      ],
      [
        "o",
        "##ven"
      ],
      [
        "c",
        "##ab"
      ],
      [
        "tal",
        "##king"
      ],
      [
        "cam",
        "##era"
      ],
      [
        "k",
        "##id"
      ],
      [
        "##ri",
        "##es"
      ],
      [
        "Th",
        "##is"
      ],
      [
        "brocc",
        "##oli"
      ],
      [
        "so",
        "##ccer"
      ],
      [
        "p",
        "##ast"
      ],
      [
        "e",
        "##m"
      ],
      [
        "##ou",
        "##se"
      ],
      [
        "##en",
        "##g"
      ],
      [
        "##c",
        "##or"
      ],
      [
        "##t",
        "##en"
      ],
      [
        "hol",
        "##ds"
      ],
      [
        "##es",
        "##e"
      ],
      [
        "col",
        "##or"
      ],
      [
        "child",
        "##ren"
      ],
      [
        "##t",
        "##ed"
      ],
      [
        "##i",
        "##re"
      ],
      [
        "chair",
        "##s"
      ],
      [
        "jum",
        "##ping"
      ],
      [
        "wat",
        "##ching"
      ],
      [
        "bot",
        "##tle"
      ],
      [
        "cor",
        "##ner"
      ],
      [
        "gu",
        "##y"
      ],
      [
        "top",
        "##ped"
      ],
      [
        "TH",
        "##E"
      ],
      [
        "dog",
        "##s"
      ],
      [
        "building",
        "##s"
      ],
      [
        "p",
        "##ot"
      ],
      [
        "##f",
        "##ul"
      ],
      [
        "bic",
        "##ycle"
      ],
      [
        "##ot",
        "##h"
      ],
      [
        "go",
        "##ing"
      ],
      [
        "b",
        "##rick"
      ],
      [
        "tra",
        "##ck"
      ],
      [
        "th",
        "##is"
      ],
      [
        "ra",
        "##c"
      ],
      [
        "n",
        "##ight"
      ],
      [
        "##pt",
        "##y"
      ],
      [
        "##id",
        "##ge"
      ],
      [
        "##u",
        "##s"
      ],
      [
        "p",
        "##it"
      ],
      [
        "##ff",
        "##ee"
      ],
      [
        "c",
        "##ur"
      ],
      [
        "airp",
        "##ort"
      ],
      [
        "cab",
        "##in"
      ],
      [
        "##ou",
        "##t"
      ],
      [
        "co",
        "##ffee"
      ],
      [
        "de",
        "##cor"
      ],
      [
        "r",
        "##id"
      ],
      [
        "po",
        "##sing"
      ],
      [
        "h",
        "##igh"
      ],
      [
        "##R",
        "##E"
      ],
      [
        "m",
        "##on"
      ],
      [
        "pap",
        "##er"
      ],
      [
        "pass",
        "##eng"
      ],
      [
        "##le",
        "##ep"
      ],
      [
        "s",
        "##er"
      ],
      [
        "em",
        "##pty"
      ],
      [
        "c",
        "##oo"
      ],
      [
        "##IN",
        "##G"
      ],
      [
        "bir",
        "##ds"
      ],
      [
        "boat",
        "##s"
      ],
      [
        "wal",
        "##k"
      ],
      [
        "d",
        "##in"
      ],
      [
        "##p",
        "##e"
      ],
      [
        "wh",
        "##o"
      ],
      [
        "rem",
        "##ot"
      ],
      [
        "loo",
        "##ks"
      ],
      [
        "b",
        "##re"
      ],
      [
        "banan",
        "##a"
      ],
      [
        "cl",
        "##ou"
      ],
      [
        "##f",
        "##orm"
      ],
      [
        "m",
        "##ar"
      ],
      [
        "bed",
        "##room"
      ],
      [
        "th",
        "##row"
      ],
      [
        "travel",
        "##ing"
      ],
      [
        "u",
        "##sing"
      ],
      [
        "##an",
        "##s"
      ],
      [
        "plat",
        "##es"
      ],
      [
        "a",
        "##g"
      ],
      [
        "p",
        "##ain"
      ],
      [
        "motorcycle",
        "##s"
      ],
      [
        "animal",
        "##s"
      ],
      [
        "##o",
        "##es"
      ],
      [
        "ri",
        "##ver"
      ],
      [
        "bear",
        "##s"
      ],
      [
        "ap",
        "##ple"
      ],
      [
        "cont",
        "##ain"
      ],
      [
        "s",
        "##et"
      ],
      [
        "sm",
        "##iling"
      ],
      [
        "##c",
        "##es"
      ],
      [
        "le",
        "##a"
      ],
      [
        "g",
        "##etting"
      ],
      [
        "de",
        "##cker"
      ],
      [
        "##am",
        "##p"
      ],
      [
        "f",
        "##ore"
      ],
      [
        "at",
        "##t"
      ],
      [
        "h",
        "##ouse"
      ],
      [
        "car",
        "##rying"
      ],
      [
        "##is",
        "##s"
      ],
      [
        "##a",
        "##ur"
      ],
      [
        "p",
        "##at"
      ],
      [
        "m",
        "##e"
      ],
      [
        "show",
        "##er"
      ],
      [
        "color",
        "##ful"
      ],
      [
        "##m",
        "##p"
      ],
      [
        "tra",
        "##y"
      ],
      [
        "p",
        "##ull"
      ],
      [
        "it",
        "##em"
      ],
      [
        "s",
        "##leep"
      ],
      [
        "##u",
        "##mb"
      ],
      [
        "p",
        "##ol"
      ],
      [
        "##aur",
        "##ant"
      ],
      [
        "p",
        "##ile"
      ],
      [
        "##ar",
        "##ding"
      ],
      [
        "ag",
        "##ain"
      ],
      [
        "run",
        "##way"
      ],
      [
        "rest",
        "##aurant"
      ],
      [
        "h",
        "##im"
      ],
      [
        "again",
        "##st"
      ],
      [
        "b",
        "##ar"
      ],
      [
        "h",
        "##ome"
      ],
      [
        "m",
        "##ic"
      ],
      [
        "m",
        "##eat"
      ],
      [
        "che",
        "##ese"
      ],
      [
        "##qu",
        "##et"
      ],
      [
        "al",
        "##l"
      ],
      [
        "l",
        "##ady"
      ],
      [
        "r",
        "##ow"
      ],
      [
        "j",
        "##et"
      ],
      [
        "ra",
        "##il"
      ],
      [
        "##f",
        "##t"
      ],
      [
        "boo",
        "##k"
      ],
      [
        "met",
        "##al"
      ],
      [
        "##k",
        "##es"
      ],
      [
        "##ar",
        "##k"
      ],
      [
        "dou",
        "##gh"
      ],
      [
        "remot",
        "##e"
      ],
      [
        "##n",
        "##e"
      ],
      [
        "ro",
        "##ck"
      ],
      [
        "skateboard",
        "##er"
      ],
      [
        "lot",
        "##s"
      ],
      [
        "##c",
        "##her"
      ],
      [
        "she",
        "##l"
      ],
      [
        "suitc",
        "##ase"
      ],
      [
        "l",
        "##in"
      ],
      [
        "dr",
        "##ink"
      ],
      [
        "##i",
        "##an"
      ],
      [
        "sc",
        "##reen"
      ],
      [
        "pl",
        "##ant"
      ],
      [
        "##as",
        "##es"
      ],
      [
        "##i",
        "##ve"
      ],
      [
        "r",
        "##amp"
      ],
      [
        "##om",
        "##et"
      ],
      [
        "##ore",
        "##d"
      ],
      [
        "##l",
        "##er"
      ],
      [
        "F",
        "##risbee"
      ],
      [
        "mon",
        "##it"
      ],
      [
        "play",
        "##ers"
      ],
      [
        "wa",
        "##iting"
      ],
      [
        "##c",
        "##ed"
      ],
      [
        "to",
        "##y"
      ],
      [
        "r",
        "##ain"
      ],
      [
        "m",
        "##ade"
      ],
      [
        "c",
        "##an"
      ],
      [
        "##d",
        "##er"
      ],
      [
        "car",
        "##ro"
      ],
      [
        "##omet",
        "##hing"
      ],
      [
        "item",
        "##s"
      ],
      [
        "light",
        "##s"
      ],
      [
        "t",
        "##ile"
      ],
      [
        "s",
        "##omething"
      ],
      [
        "run",
        "##ning"
      ],
      [
        "m",
        "##u"
      ],
      [
        "o",
        "##r"
      ],
      [
        "en",
        "##c"
      ],
      [
        "##lo",
        "##s"
      ],
      [
        "st",
        "##ore"
      ],
      [
        "f",
        "##ace"
      ],
      [
        "##al",
        "##f"
      ],
      [
        "g",
        "##i"
      ],
      [
        "p",
        "##ur"
      ],
      [
        "b",
        "##ran"
      ],
      [
        "##o",
        "##c"
      ],
      [
        "mou",
        "##th"
      ],
      [
        "##oo",
        "##l"
      ],
      [
        "prep",
        "##aring"
      ],
      [
        "sleep",
        "##ing"
      ],
      [
        "z",
        "##oo"
      ],
      [
        "##ol",
        "##l"
      ],
      [
        "W",
        "##ii"
      ],
      [
        "enc",
        "##los"
      ],
      [
        "sl",
        "##ice"
      ],
      [
        "vari",
        "##ous"
      ],
      [
        "b",
        "##rush"
      ],
      [
        "surf",
        "##ing"
      ],
      [
        "##iss",
        "##ors"
      ],
      [
        "se",
        "##at"
      ],
      [
        "hand",
        "##s"
      ],
      [
        "ab",
        "##out"
      ],
      [
        "j",
        "##acket"
      ],
      [
        "##e",
        "##ction"
      ],
      [
        "rac",
        "##quet"
      ],
      [
        "out",
        "##do"
      ],
      [
        "gra",
        "##y"
      ],
      [
        "mic",
        "##row"
      ],
      [
        "##it",
        "##ure"
      ],
      [
        "p",
        "##an"
      ],
      [
        "##i",
        "##al"
      ],
      [
        "f",
        "##urn"
      ],
      [
        "s",
        "##il"
      ],
      [
        "bus",
        "##y"
      ],
      [
        "to",
        "##oth"
      ],
      [
        "r",
        "##es"
      ],
      [
        "furn",
        "##iture"
      ],
      [
        "h",
        "##el"
      ],
      [
        "##ar",
        "##s"
      ],
      [
        "##re",
        "##d"
      ],
      [
        "int",
        "##ers"
      ],
      [
        "sc",
        "##issors"
      ],
      [
        "br",
        "##idge"
      ],
      [
        "pull",
        "##ing"
      ],
      [
        "l",
        "##ine"
      ],
      [
        "##g",
        "##es"
      ],
      [
        "dress",
        "##ed"
      ],
      [
        "##g",
        "##ra"
      ],
      [
        "microw",
        "##ave"
      ],
      [
        "sl",
        "##ic"
      ],
      [
        "##ra",
        "##w"
      ],
      [
        "##ar",
        "##m"
      ],
      [
        "##on",
        "##es"
      ],
      [
        "li",
        "##ke"
      ],
      [
        "ski",
        "##er"
      ],
      [
        "passeng",
        "##er"
      ],
      [
        "k",
        "##nif"
      ],
      [
        "inters",
        "##ection"
      ],
      [
        "t",
        "##ub"
      ],
      [
        "##t",
        "##y"
      ],
      [
        "knif",
        "##e"
      ],
      [
        "don",
        "##uts"
      ],
      [
        "l",
        "##ying"
      ],
      [
        "u",
        "##n"
      ],
      [
        "tow",
        "##ard"
      ],
      [
        "##a",
        "##ding"
      ],
      [
        "surf",
        "##er"
      ],
      [
        "##t",
        "##e"
      ],
      [
        "##g",
        "##s"
      ],
      [
        "w",
        "##he"
      ],
      [
        "##p",
        "##l"
      ],
      [
        "##I",
        "##T"
      ],
      [
        "dough",
        "##n"
      ],
      [
        "cle",
        "##ar"
      ],
      [
        "mou",
        "##se"
      ],
      [
        "n",
        "##umb"
      ],
      [
        "cabin",
        "##ets"
      ],
      [
        "h",
        "##alf"
      ],
      [
        "sil",
        "##ver"
      ],
      [
        "s",
        "##al"
      ],
      [
        "##at",
        "##her"
      ],
      [
        "photo",
        "##gra"
      ],
      [
        "F",
        "##our"
      ],
      [
        "d",
        "##ark"
      ],
      [
        "st",
        "##e"
      ],
      [
        "t",
        "##y"
      ],
      [
        "n",
        "##o"
      ],
      [
        "h",
        "##air"
      ],
      [
        "I",
        "##S"
      ],
      [
        "##w",
        "##e"
      ],
      [
        "##h",
        "##ic"
      ],
      [
        "sh",
        "##own"
      ],
      [
        "clou",
        "##dy"
      ],
      [
        "col",
        "##ored"
      ],
      [
        "##u",
        "##ce"
      ],
      [
        "##o",
        "##arding"
      ],
      [
        "##er",
        "##t"
      ],
      [
        "g",
        "##re"
      ],
      [
        "rid",
        "##es"
      ],
      [
        "ma",
        "##le"
      ],
      [
        "fore",
        "##st"
      ],
      [
        "m",
        "##at"
      ],
      [
        "f",
        "##our"
      ],
      [
        "##a",
        "##le"
      ],
      [
        "##c",
        "##l"
      ],
      [
        "##el",
        "##f"
      ],
      [
        "enclos",
        "##ure"
      ],
      [
        "sur",
        "##round"
      ],
      [
        "##ph",
        "##one"
      ],
      [
        "bran",
        "##ch"
      ],
      [
        "##nif",
        "##orm"
      ],
      [
        "##n",
        "##y"
      ],
      [
        "h",
        "##a"
      ],
      [
        "loo",
        "##k"
      ],
      [
        "u",
        "##niform"
      ],
      [
        "bat",
        "##ter"
      ],
      [
        "S",
        "##t"
      ],
      [
        "bl",
        "##an"
      ],
      [
        "carro",
        "##ts"
      ],
      [
        "##ar",
        "##t"
      ],
      [
        "##at",
        "##ing"
      ],
      [
        "numb",
        "##er"
      ],
      [
        "throw",
        "##ing"
      ],
      [
        "po",
        "##st"
      ],
      [
        "##on",
        "##d"
      ],
      [
        "ve",
        "##hic"
      ],
      [
        "oran",
        "##ges"
      ],
      [
        "##an",
        "##es"
      ],
      [
        "##i",
        "##z"
      ],
      [
        "la",
        "##ke"
      ],
      [
        "p",
        "##ill"
      ],
      [
        "##as",
        "##h"
      ],
      [
        "w",
        "##ay"
      ],
      [
        "kid",
        "##s"
      ],
      [
        "boy",
        "##s"
      ],
      [
        "monit",
        "##or"
      ],
      [
        "##an",
        "##ing"
      ],
      [
        "surround",
        "##ed"
      ],
      [
        "b",
        "##et"
      ],
      [
        "bre",
        "##ad"
      ],
      [
        "pur",
        "##ple"
      ],
      [
        "girl",
        "##s"
      ],
      [
        "p",
        "##e"
      ],
      [
        "do",
        "##ck"
      ],
      [
        "##we",
        "##en"
      ],
      [
        "boo",
        "##ks"
      ],
      [
        "bet",
        "##ween"
      ],
      [
        "##A",
        "##N"
      ],
      [
        "bus",
        "##es"
      ],
      [
        "show",
        "##ing"
      ],
      [
        "c",
        "##and"
      ],
      [
        "Man",
        "##y"
      ],
      [
        "O",
        "##N"
      ],
      [
        "##o",
        "##on"
      ],
      [
        "lin",
        "##ed"
      ],
      [
        "photogra",
        "##ph"
      ],
      [
        "me",
        "##al"
      ],
      [
        "##ak",
        "##es"
      ],
      [
        "##A",
        "##T"
      ],
      [
        "t",
        "##ri"
      ],
      [
        "st",
        "##at"
      ],
      [
        "##om",
        "##an"
      ],
      [
        "decor",
        "##ated"
      ],
      [
        "##d",
        "##ay"
      ],
      [
        "##eat",
        "##h"
      ],
      [
        "##oc",
        "##ol"
      ],
      [
        "sc",
        "##en"
      ],
      [
        "##l",
        "##ic"
      ],
      [
        "fe",
        "##ed"
      ],
      [
        "ar",
        "##m"
      ],
      [
        "for",
        "##k"
      ],
      [
        "met",
        "##er"
      ],
      [
        "##is",
        "##h"
      ],
      [
        "st",
        "##ri"
      ],
      [
        "##v",
        "##ed"
      ],
      [
        "##a",
        "##ched"
      ],
      [
        "st",
        "##ick"
      ],
      [
        "##p",
        "##es"
      ],
      [
        "##ocol",
        "##ate"
      ],
      [
        "fe",
        "##w"
      ],
      [
        "wal",
        "##ks"
      ],
      [
        "t",
        "##v"
      ],
      [
        "pill",
        "##ow"
      ],
      [
        "##ro",
        "##n"
      ],
      [
        "dis",
        "##h"
      ],
      [
        "shel",
        "##f"
      ],
      [
        "cat",
        "##s"
      ],
      [
        "##irt",
        "##h"
      ],
      [
        "##p",
        "##er"
      ],
      [
        "##in",
        "##king"
      ],
      [
        "##irth",
        "##day"
      ],
      [
        "st",
        "##one"
      ],
      [
        "br",
        "##ight"
      ],
      [
        "ch",
        "##ocolate"
      ],
      [
        "flow",
        "##er"
      ],
      [
        "jum",
        "##p"
      ],
      [
        "##u",
        "##d"
      ],
      [
        "ski",
        "##ers"
      ],
      [
        "din",
        "##ing"
      ],
      [
        "pi",
        "##ck"
      ],
      [
        "bas",
        "##ket"
      ],
      [
        "sh",
        "##op"
      ],
      [
        "cross",
        "##ing"
      ],
      [
        "a",
        "##m"
      ],
      [
        "dr",
        "##inking"
      ],
      [
        "##at",
        "##oes"
      ],
      [
        "b",
        "##irthday"
      ],
      [
        "##ol",
        "##d"
      ],
      [
        "sal",
        "##ad"
      ],
      [
        "outdo",
        "##or"
      ],
      [
        "old",
        "##er"
      ],
      [
        "lea",
        "##ves"
      ],
      [
        "att",
        "##ached"
      ],
      [
        "##t",
        "##o"
      ],
      [
        "C",
        "##h"
      ],
      [
        "##im",
        "##e"
      ],
      [
        "com",
        "##ing"
      ],
      [
        "h",
        "##ave"
      ],
      [
        "e",
        "##x"
      ],
      [
        "T",
        "##V"
      ],
      [
        "blan",
        "##ket"
      ],
      [
        "gre",
        "##y"
      ],
      [
        "display",
        "##ed"
      ],
      [
        "##E",
        "##R"
      ],
      [
        "in",
        "##cl"
      ],
      [
        "##et",
        "##h"
      ],
      [
        "sp",
        "##e"
      ],
      [
        "le",
        "##aning"
      ],
      [
        "wa",
        "##ves"
      ],
      [
        "per",
        "##ched"
      ],
      [
        "ad",
        "##ult"
      ],
      [
        "hel",
        "##m"
      ],
      [
        "h",
        "##o"
      ],
      [
        "##ult",
        "##i"
      ],
      [
        "wall",
        "##s"
      ],
      [
        "ma",
        "##king"
      ],
      [
        "window",
        "##s"
      ],
      [
        "lu",
        "##sh"
      ],
      [
        "ro",
        "##cks"
      ],
      [
        "scen",
        "##e"
      ],
      [
        "la",
        "##mp"
      ],
      [
        "car",
        "##t"
      ],
      [
        "te",
        "##eth"
      ],
      [
        "##il",
        "##y"
      ],
      [
        "pain",
        "##ted"
      ],
      [
        "on",
        "##to"
      ],
      [
        "apple",
        "##s"
      ],
      [
        "picture",
        "##s"
      ],
      [
        "##ing",
        "##s"
      ],
      [
        "surfboard",
        "##s"
      ],
      [
        "count",
        "##ry"
      ],
      [
        "p",
        "##en"
      ],
      [
        "cle",
        "##an"
      ],
      [
        "per",
        "##form"
      ],
      [
        "##an",
        "##ce"
      ],
      [
        "f",
        "##la"
      ],
      [
        "mountain",
        "##s"
      ],
      [
        "W",
        "##oman"
      ],
      [
        "##ast",
        "##ic"
      ],
      [
        "##a",
        "##ut"
      ],
      [
        "h",
        "##u"
      ],
      [
        "mar",
        "##ket"
      ],
      [
        "control",
        "##ler"
      ],
      [
        "tooth",
        "##b"
      ],
      [
        "o",
        "##b"
      ],
      [
        "##d",
        "##ge"
      ],
      [
        "f",
        "##ries"
      ],
      [
        "off",
        "##ice"
      ],
      [
        "hit",
        "##ting"
      ],
      [
        "wat",
        "##ch"
      ],
      [
        "wor",
        "##king"
      ],
      [
        "prep",
        "##are"
      ],
      [
        "t",
        "##urn"
      ],
      [
        "se",
        "##en"
      ],
      [
        "##ub",
        "##lic"
      ],
      [
        "##k",
        "##en"
      ],
      [
        "##el",
        "##s"
      ],
      [
        "coo",
        "##k"
      ],
      [
        "snowboard",
        "##er"
      ],
      [
        "com",
        "##m"
      ],
      [
        "ele",
        "##ct"
      ],
      [
        "##em",
        "##ale"
      ],
      [
        "e",
        "##ng"
      ],
      [
        "##ar",
        "##y"
      ],
      [
        "pl",
        "##astic"
      ],
      [
        "bi",
        "##kes"
      ],
      [
        "O",
        "##F"
      ],
      [
        "table",
        "##s"
      ],
      [
        "res",
        "##ting"
      ],
      [
        "tra",
        "##il"
      ],
      [
        "pol",
        "##ice"
      ],
      [
        "##L",
        "##E"
      ],
      [
        "toward",
        "##s"
      ],
      [
        "##b",
        "##y"
      ],
      [
        "g",
        "##e"
      ],
      [
        "stat",
        "##ue"
      ],
      [
        "##s",
        "##ed"
      ],
      [
        "##in",
        "##t"
      ],
      [
        "sun",
        "##ny"
      ],
      [
        "p",
        "##ublic"
      ],
      [
        "##t",
        "##ub"
      ],
      [
        "cl",
        "##ot"
      ],
      [
        "fruit",
        "##s"
      ],
      [
        "f",
        "##re"
      ],
      [
        "w",
        "##et"
      ],
      [
        "bath",
        "##tub"
      ],
      [
        "stop",
        "##ped"
      ],
      [
        "s",
        "##etting"
      ],
      [
        "##le",
        "##ss"
      ],
      [
        "u",
        "##r"
      ],
      [
        "car",
        "##ri"
      ],
      [
        "w",
        "##ild"
      ],
      [
        "##u",
        "##g"
      ],
      [
        "cat",
        "##ch"
      ],
      [
        "##m",
        "##ing"
      ],
      [
        "laptop",
        "##s"
      ],
      [
        "pat",
        "##h"
      ],
      [
        "la",
        "##y"
      ],
      [
        "##ent",
        "##s"
      ],
      [
        "sh",
        "##ort"
      ],
      [
        "hot",
        "##el"
      ],
      [
        "##he",
        "##d"
      ],
      [
        "plat",
        "##form"
      ],
      [
        "##le",
        "##ction"
      ],
      [
        "wor",
        "##k"
      ],
      [
        "don",
        "##ut"
      ],
      [
        "##at",
        "##s"
      ],
      [
        "helm",
        "##et"
      ],
      [
        "e",
        "##dge"
      ],
      [
        "brush",
        "##ing"
      ],
      [
        "mo",
        "##ving"
      ],
      [
        "I",
        "##N"
      ],
      [
        "f",
        "##emale"
      ],
      [
        "##ach",
        "##ing"
      ],
      [
        "some",
        "##one"
      ],
      [
        "##j",
        "##o"
      ],
      [
        "##aut",
        "##if"
      ],
      [
        "t",
        "##om"
      ],
      [
        "S",
        "##m"
      ],
      [
        "st",
        "##ack"
      ],
      [
        "##s",
        "##p"
      ],
      [
        "be",
        "##en"
      ],
      [
        "sh",
        "##ap"
      ],
      [
        "y",
        "##ard"
      ],
      [
        "##r",
        "##ic"
      ],
      [
        "la",
        "##p"
      ],
      [
        "fl",
        "##at"
      ],
      [
        "s",
        "##qu"
      ],
      [
        "cat",
        "##cher"
      ],
      [
        "##et",
        "##y"
      ],
      [
        "##oo",
        "##t"
      ],
      [
        "c",
        "##re"
      ],
      [
        "en",
        "##jo"
      ],
      [
        "##ss",
        "##ort"
      ],
      [
        "su",
        "##b"
      ],
      [
        "n",
        "##ot"
      ],
      [
        "##l",
        "##ing"
      ],
      [
        "sw",
        "##im"
      ],
      [
        "sm",
        "##ile"
      ],
      [
        "sh",
        "##ot"
      ],
      [
        "wood",
        "##s"
      ],
      [
        "pizz",
        "##as"
      ],
      [
        "d",
        "##raw"
      ],
      [
        "v",
        "##an"
      ],
      [
        "v",
        "##ases"
      ],
      [
        "##autif",
        "##ul"
      ],
      [
        "top",
        "##ping"
      ],
      [
        "pit",
        "##ch"
      ],
      [
        "##n",
        "##eath"
      ],
      [
        "B",
        "##lack"
      ],
      [
        "c",
        "##ase"
      ],
      [
        "under",
        "##neath"
      ],
      [
        "r",
        "##ide"
      ],
      [
        "w",
        "##ire"
      ],
      [
        "par",
        "##t"
      ],
      [
        "t",
        "##rying"
      ],
      [
        "##it",
        "##i"
      ],
      [
        "be",
        "##er"
      ],
      [
        "g",
        "##ar"
      ],
      [
        "slic",
        "##es"
      ],
      [
        "skateb",
        "##oarding"
      ],
      [
        "b",
        "##el"
      ],
      [
        "A",
        "##N"
      ],
      [
        "re",
        "##ading"
      ],
      [
        "##ra",
        "##p"
      ],
      [
        "surf",
        "##ace"
      ],
      [
        "ap",
        "##pl"
      ],
      [
        "be",
        "##autiful"
      ],
      [
        "dis",
        "##t"
      ],
      [
        "t",
        "##ime"
      ],
      [
        "comput",
        "##ers"
      ],
      [
        "##he",
        "##red"
      ],
      [
        "p",
        "##a"
      ],
      [
        "##ff",
        "##iti"
      ],
      [
        "##ter",
        "##ed"
      ],
      [
        "bu",
        "##t"
      ],
      [
        "sh",
        "##ore"
      ],
      [
        "sand",
        "##y"
      ],
      [
        "tile",
        "##d"
      ],
      [
        "p",
        "##ut"
      ],
      [
        "##e",
        "##ct"
      ],
      [
        "coo",
        "##king"
      ],
      [
        "f",
        "##ac"
      ],
      [
        "m",
        "##il"
      ],
      [
        "m",
        "##ulti"
      ],
      [
        "##all",
        "##y"
      ],
      [
        "appl",
        "##ian"
      ],
      [
        "##A",
        "##R"
      ],
      [
        "p",
        "##ep"
      ],
      [
        "pie",
        "##ces"
      ],
      [
        "Some",
        "##one"
      ],
      [
        "##in",
        "##al"
      ],
      [
        "w",
        "##ii"
      ],
      [
        "pla",
        "##ce"
      ],
      [
        "Y",
        "##oung"
      ],
      [
        "s",
        "##ing"
      ],
      [
        "pla",
        "##ced"
      ],
      [
        "show",
        "##s"
      ],
      [
        "##ick",
        "##en"
      ],
      [
        "ne",
        "##ck"
      ],
      [
        "toothb",
        "##rush"
      ],
      [
        "e",
        "##nt"
      ],
      [
        "ty",
        "##pes"
      ],
      [
        "ha",
        "##ving"
      ],
      [
        "pass",
        "##ing"
      ],
      [
        "eat",
        "##en"
      ],
      [
        "Sm",
        "##all"
      ],
      [
        "cell",
        "##phone"
      ],
      [
        "train",
        "##s"
      ],
      [
        "g",
        "##is"
      ],
      [
        "pit",
        "##cher"
      ],
      [
        "##is",
        "##t"
      ],
      [
        "con",
        "##c"
      ],
      [
        "board",
        "##s"
      ],
      [
        "gra",
        "##ffiti"
      ],
      [
        "f",
        "##ri"
      ],
      [
        "n",
        "##ice"
      ],
      [
        "c",
        "##e"
      ],
      [
        "d",
        "##ry"
      ],
      [
        "THE",
        "##RE"
      ],
      [
        "##b",
        "##or"
      ],
      [
        "ph",
        "##ones"
      ],
      [
        "fre",
        "##sh"
      ],
      [
        "##t",
        "##ain"
      ],
      [
        "f",
        "##am"
      ],
      [
        "##al",
        "##m"
      ],
      [
        "di",
        "##re"
      ],
      [
        "vehic",
        "##le"
      ],
      [
        "sh",
        "##oes"
      ],
      [
        "bas",
        "##e"
      ],
      [
        "##pla",
        "##ce"
      ],
      [
        "carri",
        "##age"
      ],
      [
        "dirt",
        "##y"
      ],
      [
        "##ou",
        "##nd"
      ],
      [
        "e",
        "##y"
      ],
      [
        "ch",
        "##icken"
      ],
      [
        "r",
        "##oll"
      ],
      [
        "##der",
        "##n"
      ],
      [
        "tow",
        "##n"
      ],
      [
        "a",
        "##ssort"
      ],
      [
        "b",
        "##le"
      ],
      [
        "tru",
        "##n"
      ],
      [
        "din",
        "##ner"
      ],
      [
        "t",
        "##an"
      ],
      [
        "##i",
        "##x"
      ],
      [
        "st",
        "##y"
      ],
      [
        "##IT",
        "##H"
      ],
      [
        "W",
        "##ITH"
      ],
      [
        "eng",
        "##ine"
      ],
      [
        "##le",
        "##y"
      ],
      [
        "sa",
        "##uce"
      ],
      [
        "##it",
        "##ion"
      ],
      [
        "ben",
        "##ches"
      ],
      [
        "##t",
        "##op"
      ],
      [
        "topping",
        "##s"
      ],
      [
        "##em",
        "##ent"
      ],
      [
        "plant",
        "##s"
      ],
      [
        "c",
        "##a"
      ],
      [
        "##in",
        "##es"
      ],
      [
        "##rou",
        "##p"
      ],
      [
        "L",
        "##arge"
      ],
      [
        "doughn",
        "##ut"
      ],
      [
        "feed",
        "##ing"
      ],
      [
        "applian",
        "##ces"
      ],
      [
        "G",
        "##roup"
      ],
      [
        "sa",
        "##il"
      ],
      [
        "bowl",
        "##s"
      ],
      [
        "l",
        "##and"
      ],
      [
        "##in",
        "##ten"
      ],
      [
        "##inten",
        "##do"
      ],
      [
        "##in",
        "##s"
      ],
      [
        "f",
        "##eat"
      ],
      [
        "ne",
        "##w"
      ],
      [
        "d",
        "##u"
      ],
      [
        "fen",
        "##ced"
      ],
      [
        "##id",
        "##es"
      ],
      [
        "wat",
        "##ches"
      ],
      [
        "a",
        "##f"
      ],
      [
        "fire",
        "##place"
      ],
      [
        "other",
        "##s"
      ],
      [
        "g",
        "##at"
      ],
      [
        "fam",
        "##ily"
      ],
      [
        "j",
        "##ust"
      ],
      [
        "c",
        "##ent"
      ],
      [
        "r",
        "##ack"
      ],
      [
        "e",
        "##nd"
      ],
      [
        "cur",
        "##tain"
      ],
      [
        "##j",
        "##ect"
      ],
      [
        "tru",
        "##cks"
      ],
      [
        "vari",
        "##ety"
      ],
      [
        "the",
        "##y"
      ],
      [
        "##ag",
        "##es"
      ],
      [
        "mount",
        "##ed"
      ],
      [
        "##v",
        "##ers"
      ],
      [
        "k",
        "##ind"
      ],
      [
        "##arm",
        "##ac"
      ],
      [
        "des",
        "##s"
      ],
      [
        "##b",
        "##o"
      ],
      [
        "e",
        "##qu"
      ],
      [
        "##p",
        "##y"
      ],
      [
        "g",
        "##lo"
      ],
      [
        "pre",
        "##t"
      ],
      [
        "t",
        "##ake"
      ],
      [
        "e",
        "##gg"
      ],
      [
        "##ch",
        "##ool"
      ],
      [
        "enjo",
        "##ying"
      ],
      [
        "t",
        "##armac"
      ],
      [
        "##w",
        "##n"
      ],
      [
        "##iz",
        "##ed"
      ],
      [
        "r",
        "##ice"
      ],
      [
        "##oo",
        "##k"
      ],
      [
        "p",
        "##ad"
      ],
      [
        "cur",
        "##b"
      ],
      [
        "sing",
        "##le"
      ],
      [
        "##c",
        "##ial"
      ],
      [
        "st",
        "##air"
      ],
      [
        "##o",
        "##s"
      ],
      [
        "dist",
        "##ance"
      ],
      [
        "doughn",
        "##uts"
      ],
      [
        "swim",
        "##ming"
      ],
      [
        "##ure",
        "##s"
      ],
      [
        "##st",
        "##ru"
      ],
      [
        "sp",
        "##oon"
      ],
      [
        "cand",
        "##les"
      ],
      [
        "##p",
        "##ack"
      ],
      [
        "##el",
        "##y"
      ],
      [
        "le",
        "##ft"
      ],
      [
        "##g",
        "##er"
      ],
      [
        "pain",
        "##ting"
      ],
      [
        "##ro",
        "##ad"
      ],
      [
        "gat",
        "##hered"
      ],
      [
        "so",
        "##f"
      ],
      [
        "mo",
        "##dern"
      ],
      [
        "ge",
        "##ar"
      ],
      [
        "##ed",
        "##est"
      ],
      [
        "tri",
        "##cks"
      ],
      [
        "perform",
        "##ing"
      ],
      [
        "s",
        "##chool"
      ],
      [
        "bed",
        "##s"
      ],
      [
        "af",
        "##ter"
      ],
      [
        "sink",
        "##s"
      ],
      [
        "s",
        "##ee"
      ],
      [
        "pret",
        "##ty"
      ],
      [
        "##re",
        "##te"
      ],
      [
        "##ris",
        "##t"
      ],
      [
        "bottle",
        "##s"
      ],
      [
        "w",
        "##as"
      ],
      [
        "##c",
        "##ing"
      ],
      [
        "stri",
        "##ped"
      ],
      [
        "conc",
        "##rete"
      ],
      [
        "guy",
        "##s"
      ],
      [
        "##ee",
        "##p"
      ],
      [
        "pl",
        "##anes"
      ],
      [
        "b",
        "##al"
      ],
      [
        "back",
        "##pack"
      ],
      [
        "O",
        "##ne"
      ],
      [
        "p",
        "##ack"
      ],
      [
        "po",
        "##les"
      ],
      [
        "hot",
        "##do"
      ],
      [
        "fl",
        "##y"
      ],
      [
        "contain",
        "##ing"
      ],
      [
        "##i",
        "##ding"
      ],
      [
        "pol",
        "##ar"
      ],
      [
        "mat",
        "##ch"
      ],
      [
        "ar",
        "##ran"
      ],
      [
        "##ur",
        "##ch"
      ],
      [
        "##ow",
        "##er"
      ],
      [
        "equ",
        "##ip"
      ],
      [
        "p",
        "##ul"
      ],
      [
        "##d",
        "##d"
      ],
      [
        "drink",
        "##s"
      ],
      [
        "bag",
        "##s"
      ],
      [
        "##oo",
        "##king"
      ],
      [
        "##ron",
        "##ic"
      ],
      [
        "contain",
        "##er"
      ],
      [
        "fl",
        "##ies"
      ],
      [
        "p",
        "##as"
      ],
      [
        "te",
        "##am"
      ],
      [
        "cent",
        "##er"
      ],
      [
        "##it",
        "##s"
      ],
      [
        "cut",
        "##e"
      ],
      [
        "pul",
        "##led"
      ],
      [
        "##l",
        "##l"
      ],
      [
        "r",
        "##ight"
      ],
      [
        "w",
        "##ell"
      ],
      [
        "suitc",
        "##ases"
      ],
      [
        "cl",
        "##ut"
      ],
      [
        "pillow",
        "##s"
      ],
      [
        "pas",
        "##ture"
      ],
      [
        "w",
        "##r"
      ],
      [
        "ch",
        "##urch"
      ],
      [
        "##q",
        "##ue"
      ],
      [
        "f",
        "##oot"
      ],
      [
        "on",
        "##ion"
      ],
      [
        "po",
        "##in"
      ],
      [
        "AN",
        "##D"
      ],
      [
        "t",
        "##ran"
      ],
      [
        "off",
        "##ic"
      ],
      [
        "k",
        "##n"
      ],
      [
        "bel",
        "##ow"
      ],
      [
        "G",
        "##ir"
      ],
      [
        "s",
        "##ou"
      ],
      [
        "##b",
        "##all"
      ],
      [
        "skateboard",
        "##s"
      ],
      [
        "passeng",
        "##ers"
      ],
      [
        "st",
        "##all"
      ],
      [
        "##u",
        "##ding"
      ],
      [
        "st",
        "##ep"
      ],
      [
        "rail",
        "##road"
      ],
      [
        "##ip",
        "##s"
      ],
      [
        "in",
        "##d"
      ],
      [
        "shap",
        "##ed"
      ],
      [
        "##b",
        "##er"
      ],
      [
        "incl",
        "##uding"
      ],
      [
        "w",
        "##ed"
      ],
      [
        "##in",
        "##i"
      ],
      [
        "##he",
        "##ad"
      ],
      [
        "ste",
        "##el"
      ],
      [
        "##ic",
        "##hes"
      ],
      [
        "m",
        "##ess"
      ],
      [
        "##m",
        "##e"
      ],
      [
        "cat",
        "##tle"
      ],
      [
        "cat",
        "##ching"
      ],
      [
        "##m",
        "##as"
      ],
      [
        "bre",
        "##ak"
      ],
      [
        "elect",
        "##ronic"
      ],
      [
        "ta",
        "##kes"
      ],
      [
        "p",
        "##edest"
      ],
      [
        "h",
        "##ay"
      ],
      [
        "##O",
        "##M"
      ],
      [
        "sof",
        "##a"
      ],
      [
        "fe",
        "##et"
      ],
      [
        "S",
        "##T"
      ],
      [
        "an",
        "##t"
      ],
      [
        "##int",
        "##age"
      ],
      [
        "##u",
        "##sh"
      ],
      [
        "##ess",
        "##ion"
      ],
      [
        "##rist",
        "##mas"
      ],
      [
        "##l",
        "##ight"
      ],
      [
        "am",
        "##ong"
      ],
      [
        "put",
        "##ting"
      ],
      [
        "##ad",
        "##s"
      ],
      [
        "trun",
        "##k"
      ],
      [
        "##g",
        "##ed"
      ],
      [
        "box",
        "##es"
      ],
      [
        "##ld",
        "##er"
      ],
      [
        "cabin",
        "##et"
      ],
      [
        "w",
        "##rap"
      ],
      [
        "r",
        "##ug"
      ],
      [
        "##i",
        "##ed"
      ],
      [
        "crowd",
        "##ed"
      ],
      [
        "##i",
        "##um"
      ],
      [
        "f",
        "##o"
      ],
      [
        "cre",
        "##am"
      ],
      [
        "k",
        "##ne"
      ],
      [
        "q",
        "##u"
      ],
      [
        "##s",
        "##c"
      ],
      [
        "sandw",
        "##iches"
      ],
      [
        "N",
        "##intendo"
      ],
      [
        "surf",
        "##ers"
      ],
      [
        "sou",
        "##p"
      ],
      [
        "al",
        "##one"
      ],
      [
        "f",
        "##an"
      ],
      [
        "flo",
        "##ating"
      ],
      [
        "##el",
        "##ing"
      ],
      [
        "j",
        "##u"
      ],
      [
        "near",
        "##by"
      ],
      [
        "fr",
        "##idge"
      ],
      [
        "equip",
        "##ment"
      ],
      [
        "##am",
        "##es"
      ],
      [
        "clot",
        "##hes"
      ],
      [
        "ble",
        "##nder"
      ],
      [
        "ap",
        "##p"
      ],
      [
        "ob",
        "##ject"
      ],
      [
        "f",
        "##ish"
      ],
      [
        "tow",
        "##el"
      ],
      [
        "##a",
        "##king"
      ],
      [
        "r",
        "##ound"
      ],
      [
        "##A",
        "##L"
      ],
      [
        "##ur",
        "##al"
      ],
      [
        "##ren",
        "##ch"
      ],
      [
        "pro",
        "##p"
      ],
      [
        "short",
        "##s"
      ],
      [
        "bus",
        "##hes"
      ],
      [
        "g",
        "##old"
      ],
      [
        "##ras",
        "##h"
      ],
      [
        "lo",
        "##c"
      ],
      [
        "##f",
        "##e"
      ],
      [
        "dire",
        "##ction"
      ],
      [
        "sty",
        "##le"
      ],
      [
        "gi",
        "##ant"
      ],
      [
        "re",
        "##aching"
      ],
      [
        "##ic",
        "##al"
      ],
      [
        "tom",
        "##atoes"
      ],
      [
        "p",
        "##ool"
      ],
      [
        "st",
        "##ain"
      ],
      [
        "ser",
        "##ved"
      ],
      [
        "##on",
        "##s"
      ],
      [
        "hu",
        "##ge"
      ],
      [
        "stick",
        "##ing"
      ],
      [
        "a",
        "##rt"
      ],
      [
        "play",
        "##s"
      ],
      [
        "##f",
        "##ession"
      ],
      [
        "##s",
        "##et"
      ],
      [
        "##ard",
        "##en"
      ],
      [
        "##i",
        "##v"
      ],
      [
        "##an",
        "##ding"
      ],
      [
        "r",
        "##oo"
      ],
      [
        "##l",
        "##and"
      ],
      [
        "ce",
        "##iling"
      ],
      [
        "whe",
        "##re"
      ],
      [
        "smile",
        "##s"
      ],
      [
        "l",
        "##ed"
      ],
      [
        "ref",
        "##lection"
      ],
      [
        "dis",
        "##hes"
      ],
      [
        "prepare",
        "##s"
      ],
      [
        "po",
        "##ses"
      ],
      [
        "##lass",
        "##es"
      ],
      [
        "##fession",
        "##al"
      ],
      [
        "cou",
        "##ches"
      ],
      [
        "squ",
        "##are"
      ],
      [
        "##yc",
        "##l"
      ],
      [
        "v",
        "##intage"
      ],
      [
        "##o",
        "##ck"
      ],
      [
        "##er",
        "##cial"
      ],
      [
        "sp",
        "##ace"
      ],
      [
        "wed",
        "##ding"
      ],
      [
        "g",
        "##arden"
      ],
      [
        "clou",
        "##ds"
      ],
      [
        "at",
        "##op"
      ],
      [
        "bot",
        "##h"
      ],
      [
        "pot",
        "##atoes"
      ],
      [
        "slic",
        "##ed"
      ],
      [
        "le",
        "##gs"
      ],
      [
        "de",
        "##v"
      ],
      [
        "t",
        "##rash"
      ],
      [
        "ta",
        "##ken"
      ],
      [
        "a",
        "##way"
      ],
      [
        "bicycle",
        "##s"
      ],
      [
        "ser",
        "##ve"
      ],
      [
        "st",
        "##raw"
      ],
      [
        "dock",
        "##ed"
      ],
      [
        "lay",
        "##s"
      ],
      [
        "##ow",
        "##ing"
      ],
      [
        "ser",
        "##ving"
      ],
      [
        "##l",
        "##ers"
      ],
      [
        "##ak",
        "##ed"
      ],
      [
        "##at",
        "##o"
      ],
      [
        "sub",
        "##way"
      ],
      [
        "##l",
        "##in"
      ],
      [
        "##ell",
        "##ing"
      ],
      [
        "c",
        "##ement"
      ],
      [
        "##R",
        "##O"
      ],
      [
        "st",
        "##aring"
      ],
      [
        "b",
        "##lo"
      ],
      [
        "b",
        "##ent"
      ],
      [
        "vehic",
        "##les"
      ],
      [
        "##f",
        "##ast"
      ],
      [
        "kit",
        "##ten"
      ],
      [
        "##un",
        "##ch"
      ],
      [
        "##i",
        "##ous"
      ],
      [
        "##in",
        "##ess"
      ],
      [
        "food",
        "##s"
      ],
      [
        "po",
        "##se"
      ],
      [
        "for",
        "##m"
      ],
      [
        "##E",
        "##N"
      ],
      [
        "r",
        "##ust"
      ],
      [
        "rock",
        "##y"
      ],
      [
        "##re",
        "##ad"
      ],
      [
        "##I",
        "##S"
      ],
      [
        "##b",
        "##oarding"
      ],
      [
        "##i",
        "##o"
      ],
      [
        "des",
        "##ign"
      ],
      [
        "##ash",
        "##ion"
      ],
      [
        "St",
        "##re"
      ],
      [
        "multi",
        "##ple"
      ],
      [
        "fla",
        "##g"
      ],
      [
        "##v",
        "##ent"
      ],
      [
        "wh",
        "##ich"
      ],
      [
        "##c",
        "##y"
      ],
      [
        "f",
        "##ashion"
      ],
      [
        "l",
        "##et"
      ],
      [
        "airpl",
        "##anes"
      ],
      [
        "sm",
        "##o"
      ],
      [
        "stack",
        "##ed"
      ],
      [
        "##stru",
        "##ction"
      ],
      [
        "e",
        "##ar"
      ],
      [
        "comm",
        "##ercial"
      ],
      [
        "##in",
        "##y"
      ],
      [
        "Stre",
        "##et"
      ],
      [
        "S",
        "##k"
      ],
      [
        "bus",
        "##iness"
      ],
      [
        "##ow",
        "##s"
      ],
      [
        "##ant",
        "##s"
      ],
      [
        "B",
        "##o"
      ],
      [
        "h",
        "##am"
      ],
      [
        "dess",
        "##ert"
      ],
      [
        "##m",
        "##an"
      ],
      [
        "##i",
        "##er"
      ],
      [
        "##it",
        "##ary"
      ],
      [
        "c",
        "##ub"
      ],
      [
        "##w",
        "##ard"
      ],
      [
        "##O",
        "##P"
      ],
      [
        "##i",
        "##que"
      ],
      [
        "##ul",
        "##ar"
      ],
      [
        "su",
        "##ng"
      ],
      [
        "ap",
        "##pe"
      ],
      [
        "h",
        "##ar"
      ],
      [
        "to",
        "##ur"
      ],
      [
        "c",
        "##ap"
      ],
      [
        "sung",
        "##lasses"
      ],
      [
        "m",
        "##ach"
      ],
      [
        "w",
        "##in"
      ],
      [
        "##ru",
        "##s"
      ],
      [
        "mot",
        "##her"
      ],
      [
        "high",
        "##way"
      ],
      [
        "##il",
        "##s"
      ],
      [
        "cl",
        "##oth"
      ],
      [
        "draw",
        "##n"
      ],
      [
        "s",
        "##ame"
      ],
      [
        "clock",
        "##s"
      ],
      [
        "##ad",
        "##ed"
      ],
      [
        "d",
        "##el"
      ],
      [
        "k",
        "##ick"
      ],
      [
        "u",
        "##mp"
      ],
      [
        "##ra",
        "##ct"
      ],
      [
        "##ig",
        "##e"
      ],
      [
        "break",
        "##fast"
      ],
      [
        "A",
        "##RE"
      ],
      [
        "##ur",
        "##ry"
      ],
      [
        "##u",
        "##gh"
      ],
      [
        "##E",
        "##S"
      ],
      [
        "f",
        "##arm"
      ],
      [
        "##n",
        "##ic"
      ],
      [
        "P",
        "##erson"
      ],
      [
        "g",
        "##ames"
      ],
      [
        "s",
        "##ay"
      ],
      [
        "out",
        "##f"
      ],
      [
        "pedest",
        "##ri"
      ],
      [
        "led",
        "##ge"
      ],
      [
        "##b",
        "##b"
      ],
      [
        "##at",
        "##es"
      ],
      [
        "h",
        "##ard"
      ],
      [
        "i",
        "##ce"
      ],
      [
        "pro",
        "##fessional"
      ],
      [
        "hill",
        "##side"
      ],
      [
        "rest",
        "##room"
      ],
      [
        "swing",
        "##s"
      ],
      [
        "over",
        "##l"
      ],
      [
        "outdo",
        "##ors"
      ],
      [
        "A",
        "##s"
      ],
      [
        "whe",
        "##el"
      ],
      [
        "ump",
        "##ire"
      ],
      [
        "##A",
        "##S"
      ],
      [
        "##um",
        "##p"
      ],
      [
        "se",
        "##ated"
      ],
      [
        "##art",
        "##ment"
      ],
      [
        "flo",
        "##ck"
      ],
      [
        "ur",
        "##inal"
      ],
      [
        "##le",
        "##t"
      ],
      [
        "fri",
        "##en"
      ],
      [
        "##u",
        "##al"
      ],
      [
        "##E",
        "##T"
      ],
      [
        "bo",
        "##arding"
      ],
      [
        "clut",
        "##tered"
      ],
      [
        "##k",
        "##ets"
      ],
      [
        "pep",
        "##per"
      ],
      [
        "##ck",
        "##ing"
      ],
      [
        "f",
        "##ree"
      ],
      [
        "##b",
        "##an"
      ],
      [
        "##ul",
        "##ts"
      ],
      [
        "cook",
        "##ed"
      ],
      [
        "g",
        "##et"
      ],
      [
        "stair",
        "##s"
      ],
      [
        "l",
        "##ow"
      ],
      [
        "##c",
        "##akes"
      ],
      [
        "monit",
        "##ors"
      ],
      [
        "stain",
        "##less"
      ],
      [
        "cl",
        "##i"
      ],
      [
        "f",
        "##un"
      ],
      [
        "t",
        "##er"
      ],
      [
        "bu",
        "##r"
      ],
      [
        "ch",
        "##op"
      ],
      [
        "des",
        "##ert"
      ],
      [
        "ra",
        "##ce"
      ],
      [
        "control",
        "##lers"
      ],
      [
        "hotdo",
        "##g"
      ],
      [
        "T",
        "##ra"
      ],
      [
        "##lin",
        "##er"
      ],
      [
        "l",
        "##one"
      ],
      [
        "desk",
        "##top"
      ],
      [
        "roo",
        "##f"
      ],
      [
        "c",
        "##la"
      ],
      [
        "l",
        "##ad"
      ],
      [
        "f",
        "##rench"
      ],
      [
        "##n",
        "##ed"
      ],
      [
        "c",
        "##age"
      ],
      [
        "##s",
        "##elf"
      ],
      [
        "glo",
        "##ve"
      ],
      [
        "c",
        "##ra"
      ],
      [
        "d",
        "##oll"
      ],
      [
        "##p",
        "##p"
      ],
      [
        "do",
        "##ors"
      ],
      [
        "wood",
        "##ed"
      ],
      [
        "r",
        "##et"
      ],
      [
        "mo",
        "##d"
      ],
      [
        "f",
        "##ra"
      ],
      [
        "##ro",
        "##p"
      ],
      [
        "pic",
        "##nic"
      ],
      [
        "dri",
        "##ves"
      ],
      [
        "W",
        "##h"
      ],
      [
        "g",
        "##ather"
      ],
      [
        "dis",
        "##c"
      ],
      [
        "##O",
        "##T"
      ],
      [
        "onion",
        "##s"
      ],
      [
        "racket",
        "##s"
      ],
      [
        "arm",
        "##s"
      ],
      [
        "##u",
        "##it"
      ],
      [
        "##u",
        "##ff"
      ],
      [
        "##d",
        "##ed"
      ],
      [
        "##v",
        "##y"
      ],
      [
        "##on",
        "##i"
      ],
      [
        "##ver",
        "##t"
      ],
      [
        "co",
        "##at"
      ],
      [
        "him",
        "##self"
      ],
      [
        "jump",
        "##s"
      ],
      [
        "ey",
        "##es"
      ],
      [
        "##id",
        "##ent"
      ],
      [
        "la",
        "##wn"
      ],
      [
        "##o",
        "##g"
      ],
      [
        "int",
        "##er"
      ],
      [
        "pro",
        "##d"
      ],
      [
        "##is",
        "##ts"
      ],
      [
        "do",
        "##es"
      ],
      [
        "sh",
        "##o"
      ],
      [
        "sign",
        "##al"
      ],
      [
        "n",
        "##ap"
      ],
      [
        "che",
        "##f"
      ],
      [
        "mil",
        "##itary"
      ],
      [
        "step",
        "##s"
      ],
      [
        "c",
        "##ard"
      ],
      [
        "##b",
        "##r"
      ],
      [
        "fac",
        "##ing"
      ],
      [
        "cup",
        "##s"
      ],
      [
        "say",
        "##s"
      ],
      [
        "##ir",
        "##c"
      ],
      [
        "shel",
        "##ves"
      ],
      [
        "p",
        "##ond"
      ],
      [
        "to",
        "##u"
      ],
      [
        "##ar",
        "##row"
      ],
      [
        "co",
        "##st"
      ],
      [
        "le",
        "##ather"
      ],
      [
        "C",
        "##lo"
      ],
      [
        "##f",
        "##ore"
      ],
      [
        "a",
        "##cc"
      ],
      [
        "poin",
        "##ting"
      ],
      [
        "f",
        "##all"
      ],
      [
        "kne",
        "##eling"
      ],
      [
        "eat",
        "##s"
      ],
      [
        "##m",
        "##ade"
      ],
      [
        "##ke",
        "##y"
      ],
      [
        "mess",
        "##y"
      ],
      [
        "##O",
        "##W"
      ],
      [
        "con",
        "##struction"
      ],
      [
        "cost",
        "##um"
      ],
      [
        "As",
        "##ian"
      ],
      [
        "##p",
        "##ers"
      ],
      [
        "th",
        "##ings"
      ],
      [
        "bro",
        "##ken"
      ],
      [
        "ski",
        "##es"
      ],
      [
        "##p",
        "##et"
      ],
      [
        "egg",
        "##s"
      ],
      [
        "##ph",
        "##ones"
      ],
      [
        "app",
        "##ro"
      ],
      [
        "g",
        "##ate"
      ],
      [
        "be",
        "##fore"
      ],
      [
        "se",
        "##a"
      ],
      [
        "e",
        "##vent"
      ],
      [
        "##o",
        "##d"
      ],
      [
        "##O",
        "##R"
      ],
      [
        "st",
        "##ru"
      ],
      [
        "c",
        "##ru"
      ],
      [
        "##E",
        "##D"
      ],
      [
        "snow",
        "##boarding"
      ],
      [
        "gr",
        "##ill"
      ],
      [
        "floor",
        "##s"
      ],
      [
        "c",
        "##irc"
      ],
      [
        "##a",
        "##ct"
      ],
      [
        "incl",
        "##ud"
      ],
      [
        "e",
        "##xt"
      ],
      [
        "de",
        "##ck"
      ],
      [
        "m",
        "##ake"
      ],
      [
        "Ch",
        "##ristmas"
      ],
      [
        "##m",
        "##er"
      ],
      [
        "lo",
        "##g"
      ],
      [
        "pot",
        "##s"
      ],
      [
        "##vert",
        "##is"
      ],
      [
        "##i",
        "##cks"
      ],
      [
        "##ut",
        "##er"
      ],
      [
        "brocc",
        "##o"
      ],
      [
        "f",
        "##ig"
      ],
      [
        "l",
        "##unch"
      ],
      [
[...]
